<epsilon> 0
<s> 1
</s> 2
<unk> 3
, 4
. 5
und 6
die 7
sie 8
der 9
das 10
ich 11
ist 12
es 13
wir 14
in 15
zu 16
ein 17
&quot; 18
von 19
eine 20
dass 21
nicht 22
den 23
mit 24
wie 25
auf 26
er 27
sich 28
sind 29
aber 30
man 31
für 32
haben 33
: 34
wenn 35
was 36
? 37
an 38
als 39
so 40
um 41
diese 42
war 43
im 44
dem 45
ver@@ 46
einen 47
also 48
uns 49
können 50
des 51
oder 52
werden 53
er@@ 54
hier 55
aus 56
hat 57
über 58
be@@ 59
an@@ 60
einer 61
– 62
auch 63
einem 64
ge@@ 65
kann 66
dann 67
sehr 68
-@@ 69
wird 70
nur 71
gibt 72
menschen 73
ihnen 74
ten 75
sehen 76
mich 77
sein 78
te 79
dieser 80
-- 81
etwas 82
aus@@ 83
ein@@ 84
nach 85
noch 86
habe 87
k@@ 88
mir 89
en 90
s@@ 91
bei 92
un@@ 93
ab@@ 94
vor 95
alle 96
mehr 97
welt 98
- 99
ihre 100
leben 101
machen 102
meine 103
zum 104
weil 105
nun 106
wurde 107
wirklich 108
sch@@ 109
da 110
dieses 111
dies 112
s 113
auf@@ 114
gen 115
am 116
durch 117
en@@ 118
t@@ 119
ung 120
immer 121
t 122
tun 123
unsere 124
zu@@ 125
zeit 126
jetzt 127
ihr 128
wissen 129
hatte 130
vor@@ 131
leute 132
viel 133
z@@ 134
keine 135
viele 136
über@@ 137
g@@ 138
diesem 139
sagen 140
eines 141
denn 142
du 143
sagte 144
d@@ 145
art 146
dinge 147
diesen 148
zwei 149
einfach 150
waren 151
ch@@ 152
g 153
b@@ 154
alles 155
jahren 156
um@@ 157
wo 158
müssen 159
andere 160
mal 161
e@@ 162
bin 163
h@@ 164
ungen 165
gehen 166
anderen 167
mein 168
geht 169
a@@ 170
würde 171
damit 172
ent@@ 173
bis 174
zur 175
vielleicht 176
re@@ 177
r@@ 178
selbst 179
a 180
ge 181
sten 182
st@@ 183
o@@ 184
m@@ 185
gut 186
e 187
jahre 188
all 189
ter 190
ert 191
de 192
f@@ 193
kommen 194
ische 195
ende 196
i@@ 197
heute 198
ischen 199
geben 200
eren 201
in@@ 202
muss 203
n@@ 204
warum 205
geschichte 206
schon 207
ti@@ 208
al@@ 209
ie 210
ja 211
einige 212
macht 213
lassen 214
p@@ 215
möchte 216
wieder 217
tatsächlich 218
di@@ 219
li@@ 220
&apos; 221
m 222
le@@ 223
denken 224
se@@ 225
liche 226
davon 227
kinder 228
dort 229
i 230
st 231
u@@ 232
ganz 233
genau 234
ma@@ 235
hatten 236
seine 237
unter@@ 238
drei 239
end 240
darüber 241
ob 242
könnte 243
chen 244
lichen 245
ihn 246
lich 247
paar 248
ger 249
jahr 250
d 251
l@@ 252
nehmen 253
se 254
teil 255
wollen 256
ar@@ 257
werde 258
weise 259
ri@@ 260
el@@ 261
gt 262
her@@ 263
meiner 264
land 265
ken 266
ste 267
ihren 268
de@@ 269
finden 270
ern 271
weg 272
wurden 273
tag 274
stellen 275
während 276
denen 277
kommt 278
frage 279
; 280
jeder 281
gab 282
zwischen 283
tet 284
problem 285
denke 286
gemacht 287
dazu 288
beispiel 289
k 290
ko@@ 291
wäre 292
vom 293
sondern 294
unserer 295
hin@@ 296
sogar 297
neue 298
ä@@ 299
bringen 300
glaube 301
doch 302
ungs@@ 303
kein 304
! 305
ber@@ 306
unser 307
nen 308
o 309
sen 310
ger@@ 311
natürlich 312
unter 313
w@@ 314
zeigen 315
arbeit 316
arbeiten 317
ihrer 318
ohne 319
or@@ 320
weiter 321
einmal 322
weiß 323
gerade 324
sieht 325
fen 326
nichts 327
ro@@ 328
dafür 329
ei@@ 330
system 331
kon@@ 332
durch@@ 333
nie 334
würden 335
ö@@ 336
bi@@ 337
am@@ 338
prozent 339
la@@ 340
passiert 341
zurück 342
erste 343
verstehen 344
erte 345
sp@@ 346
ck@@ 347
vielen 348
schen 349
cht 350
daran 351
fragen 352
ben 353
sprechen 354
sagt 355
ersten 356
n 357
men 358
will 359
millionen 360
te@@ 361
kt 362
bild 363
ale 364
idee 365
konnte 366
si@@ 367
der@@ 368
isch 369
y@@ 370
ere 371
ganze 372
große 373
letzten 374
dabei 375
gel@@ 376
etwa 377
gen@@ 378
es@@ 379
bekommen 380
könnten 381
welche 382
at@@ 383
ha@@ 384
ch 385
nach@@ 386
ging 387
mit@@ 388
ta@@ 389
wasser 390
elle 391
seite 392
tes 393
zi@@ 394
au@@ 395
sollte 396
kam 397
frauen 398
bar 399
geld 400
ter@@ 401
z 402
sollten 403
ziemlich 404
ni@@ 405
daten 406
me@@ 407
enden 408
meisten 409
wollte 410
sache 411
he@@ 412
on@@ 413
meinen 414
ange@@ 415
tionen 416
meinem 417
ten@@ 418
den@@ 419
jemand 420
essen 421
ur@@ 422
le 423
fall 424
wei@@ 425
wichtig 426
lei@@ 427
kleinen 428
gesehen 429
gesch@@ 430
technologie 431
ü@@ 432
sen@@ 433
halten 434
darauf 435
mi@@ 436
cken 437
j@@ 438
ges@@ 439
l 440
brauchen 441
is@@ 442
gi@@ 443
lernen 444
on 445
vier 446
v@@ 447
ne@@ 448
eigentlich 449
weniger 450
zusammen 451
ellen 452
chte 453
mann 454
ins 455
zusammen@@ 456
besser 457
dollar 458
raum 459
ra@@ 460
tung 461
großen 462
ganzen 463
kan@@ 464
sk@@ 465
menge 466
bedeutet 467
ru@@ 468
dachte 469
det 470
eln 471
sti@@ 472
licher 473
sa@@ 474
ihm 475
ste@@ 476
glauben 477
zeigt 478
kleine 479
r 480
unseren 481
hen 482
ihrem 483
punkt 484
chten 485
th@@ 486
po@@ 487
gehirn 488
ben@@ 489
b 490
lebens@@ 491
bei@@ 492
lo@@ 493
schauen 494
versuchen 495
mo@@ 496
tr@@ 497
10 498
alen 499
danke 500
jedes 501
gegen 502
spielen 503
rei@@ 504
grund 505
3@@ 506
frau 507
h 508
f 509
as@@ 510
c@@ 511
che 512
führen 513
nein 514
ab 515
jeden 516
ak@@ 517
allen 518
ausge@@ 519
wer 520
indem 521
licht 522
ort 523
em 524
erung 525
tz@@ 526
los 527
al 528
seit 529
zen 530
beim 531
teilen 532
bauen 533
form 534
nutzen 535
ka@@ 536
zukunft 537
erde 538
gesagt 539
war@@ 540
schaffen 541
ft 542
person 543
hei@@ 544
... 545
bo@@ 546
me 547
seiner 548
keinen 549
man@@ 550
wahrscheinlich 551
eigenen 552
erten 553
fünf 554
20 555
ges 556
hätte 557
hin 558
gute 559
stehen 560
später 561
hal@@ 562
par@@ 563
kind 564
mar@@ 565
all@@ 566
zurück@@ 567
fast 568
kl@@ 569
iert 570
tig 571
fa@@ 572
men@@ 573
el 574
stellt 575
na@@ 576
wa@@ 577
stadt 578
arten 579
heraus 580
jede 581
sche 582
da@@ 583
op@@ 584
ke 585
setzen 586
ens 587
pro@@ 588
cht@@ 589
probleme 590
sah 591
schule 592
sicher 593
hö@@ 594
lange 595
energie 596
ker 597
kom@@ 598
tigen 599
anzu@@ 600
funktioniert 601
tt@@ 602
ungefähr 603
hand@@ 604
pro 605
welt@@ 606
richtig 607
be 608
än@@ 609
mu@@ 610
wenig 611
lang 612
konnten 613
mutter 614
qu@@ 615
kte 616
liches 617
dr@@ 618
helfen 619
fi@@ 620
erzählen 621
buch 622
tieren 623
zwei@@ 624
we@@ 625
oft 626
recht 627
fe@@ 628
heißt 629
neuen 630
kten 631
körper 632
dar@@ 633
ku@@ 634
erst 635
liebe 636
genug 637
stand 638
schnell 639
moment 640
möglich 641
ideen 642
tern 643
tige 644
50 645
nächsten 646
weit 647
ck 648
tete 649
hören 650
br@@ 651
braucht 652
ff@@ 653
afrika 654
bes@@ 655
gruppe 656
ne 657
wunder@@ 658
unserem 659
bisschen 660
gern 661
ts@@ 662
do@@ 663
einander 664
ho@@ 665
ß@@ 666
begann 667
ster@@ 668
wer@@ 669
projekt 670
reden 671
to@@ 672
% 673
so@@ 674
anders 675
dank 676
ieren 677
leuten 678
seinen 679
kor@@ 680
ell 681
heit 682
ßen 683
darum 684
überall 685
zer@@ 686
vi@@ 687
bevor 688
euch 689
as 690
manchmal 691
sachen 692
dung 693
mon@@ 694
schi@@ 695
teil@@ 696
cher 697
är@@ 698
planeten 699
us@@ 700
computer 701
entwickelt 702
her 703
je@@ 704
okay 705
mittel@@ 706
gehört 707
ken@@ 708
schul@@ 709
2 710
sei 711
30 712
geb@@ 713
sage 714
pa@@ 715
ster 716
sta@@ 717
natur 718
str@@ 719
wert 720
ir@@ 721
ser@@ 722
ung@@ 723
milliarden 724
wieder@@ 725
at 726
unternehmen 727
sagten 728
wi@@ 729
je 730
lich@@ 731
zellen 732
for@@ 733
seinem 734
liegt 735
besch@@ 736
kennen 737
neu@@ 738
p 739
mädchen 740
informationen 741
nennen 742
tze 743
u 744
anderes 745
elt 746
wissenschaft 747
mer@@ 748
du@@ 749
gend 750
alt 751
y 752
ok 753
tat 754
fand 755
us 756
ischer 757
star@@ 758
eins 759
tische 760
fahr@@ 761
tra@@ 762
ts 763
gestellt 764
erkennen 765
tion@@ 766
besonders 767
bau@@ 768
bilder 769
deshalb 770
steht 771
spiel 772
tro@@ 773
machte 774
fe 775
verändern 776
lichkeit 777
usa 778
4@@ 779
tä@@ 780
versch@@ 781
heraus@@ 782
stück 783
teile 784
gleich 785
is 786
geschichten 787
pf@@ 788
gel 789
ll@@ 790
gesellschaft 791
sprache 792
familie 793
führt 794
treffen 795
alten 796
minuten 797
gefühl 798
it@@ 799
zeit@@ 800
namens 801
tion 802
erreichen 803
tischen 804
wegen 805
ün@@ 806
bereits 807
klar 808
mü@@ 809
su@@ 810
lage 811
no@@ 812
oh 813
et@@ 814
oben 815
wor@@ 816
benutzen 817
spiel@@ 818
tions@@ 819
vater 820
.@@ 821
hren 822
ner 823
auszu@@ 824
ziehen 825
hoch@@ 826
dich 827
indien 828
musste 829
mis@@ 830
verschiedene 831
hätten 832
lebens 833
new 834
gar 835
möglichkeit 836
tre@@ 837
irgend@@ 838
sechs 839
tragen 840
antwort 841
musik 842
bri@@ 843
enen 844
100 845
viel@@ 846
bar@@ 847
he 848
s-@@ 849
darin 850
kr@@ 851
hand 852
3 853
bu@@ 854
haus 855
ar 856
cke 857
lan@@ 858
x 859
gerne 860
lin@@ 861
5@@ 862
tiert 863
wasser@@ 864
kopf 865
weiter@@ 866
einzige 867
gkeit 868
ing@@ 869
tiere 870
jedem 871
mittel 872
internet 873
design 874
augen 875
einigen 876
5 877
frei@@ 878
besten 879
ene 880
nung 881
ot@@ 882
schreiben 883
entwickeln 884
länder 885
gte 886
stunden 887
pp@@ 888
kal@@ 889
dessen 890
innerhalb 891
onen 892
ß 893
pe@@ 894
tten 895
ckt 896
niemand 897
irgendwie 898
bewegen 899
gleichen 900
bringt 901
wachsen 902
gleiche 903
gott 904
gu@@ 905
sei@@ 906
tisch 907
ent 908
gebracht 909
lässt 910
gr@@ 911
soll 912
verhalten 913
schließlich 914
kindern 915
regierung 916
gebäude 917
co@@ 918
aufge@@ 919
obwohl 920
verschiedenen 921
menschlichen 922
ze 923
kat@@ 924
tiven 925
gang 926
wür@@ 927
verwenden 928
äu@@ 929
bt 930
erhalten 931
fan@@ 932
schaft 933
vorstellen 934
möglichkeiten 935
gleich@@ 936
zei@@ 937
15 938
dern 939
gegen@@ 940
lesen 941
fol@@ 942
kol@@ 943
patienten 944
ph@@ 945
ändern 946
beiden 947
nimmt 948
lie@@ 949
hi@@ 950
ja@@ 951
nämlich 952
wo@@ 953
gemein@@ 954
eltern 955
schw@@ 956
gten 957
lösung 958
genommen 959
kre@@ 960
film 961
il@@ 962
wollten 963
krebs 964
kraft 965
ler 966
stellte 967
fr@@ 968
chter 969
männer 970
schwer 971
beginnen 972
dir 973
1 974
ex@@ 975
unglaublich 976
lösen 977
mm@@ 978
entwicklung 979
isches 980
wirtschaft 981
6@@ 982
formen 983
fähigkeit 984
hlt 985
bitte 986
damals 987
hoch 988
kunst 989
stelle 990
rück@@ 991
8 992
china 993
herum 994
1@@ 995
glück 996
mel@@ 997
sinn 998
c 999
fahren 1000
hnen 1001
aller 1002
mus 1003
versucht 1004
selbst@@ 1005
4 1006
pi@@ 1007
drei@@ 1008
universum 1009
e-@@ 1010
fangen 1011
fü@@ 1012
ie@@ 1013
the@@ 1014
wohl 1015
daher 1016
hause 1017
kamen 1018
län@@ 1019
em@@ 1020
flie@@ 1021
im@@ 1022
voll@@ 1023
x@@ 1024
laufen 1025
legen 1026
len 1027
bel@@ 1028
kultur 1029
staaten 1030
getan 1031
fühlen 1032
stra@@ 1033
auto 1034
kti@@ 1035
lehr@@ 1036
om@@ 1037
stoff 1038
angst 1039
hinter 1040
kop@@ 1041
nächste 1042
schön 1043
gan@@ 1044
ssen 1045
überhaupt 1046
falls 1047
gung 1048
richtung 1049
schü@@ 1050
sü@@ 1051
zt 1052
hilfe 1053
voll 1054
hl@@ 1055
verändert 1056
blick 1057
cher@@ 1058
tut 1059
bewegung 1060
wort 1061
zwar 1062
ad@@ 1063
baren 1064
mer 1065
rech@@ 1066
nachdem 1067
spezi@@ 1068
tzen 1069
krieg 1070
zahlen 1071
allem 1072
ern@@ 1073
fort@@ 1074
tan@@ 1075
min@@ 1076
junge 1077
menschliche 1078
modell 1079
son 1080
7@@ 1081
sh@@ 1082
zahl 1083
d-@@ 1084
groß 1085
tage 1086
end@@ 1087
gra@@ 1088
nahmen 1089
deren 1090
or 1091
schla@@ 1092
6 1093
letzte 1094
grunde 1095
dete 1096
kurz 1097
lu@@ 1098
einge@@ 1099
ers 1100
kü@@ 1101
sterben 1102
eher 1103
ht 1104
inter@@ 1105
maschine 1106
dingen 1107
ted 1108
tiv 1109
treten 1110
unten 1111
wahr@@ 1112
worden 1113
are 1114
rie@@ 1115
wissenschaftler 1116
erfahrung 1117
lö@@ 1118
land@@ 1119
äl@@ 1120
.000 1121
alter 1122
krei@@ 1123
sau@@ 1124
üb@@ 1125
genden 1126
nahm 1127
enten 1128
wider@@ 1129
fanden 1130
findet 1131
unterschied 1132
ber 1133
betrachten 1134
jungen 1135
welches 1136
fl@@ 1137
meines 1138
kaufen 1139
nis 1140
8@@ 1141
ag@@ 1142
fo@@ 1143
ien 1144
york 1145
neu 1146
dra@@ 1147
jedoch 1148
tief@@ 1149
weitere 1150
eigene 1151
fliegen 1152
führ@@ 1153
hn@@ 1154
mag 1155
anfang 1156
forschung 1157
ke@@ 1158
lau@@ 1159
&#91; 1160
&#93; 1161
boden 1162
platz 1163
40 1164
bare 1165
gl@@ 1166
kosten 1167
haus@@ 1168
lieben 1169
muster 1170
schä@@ 1171
ziel 1172
grund@@ 1173
wohl@@ 1174
thema 1175
beste 1176
bildung 1177
gebaut 1178
0.000 1179
groß@@ 1180
körper@@ 1181
mal@@ 1182
fer@@ 1183
hr@@ 1184
prozess 1185
roboter 1186
lehrer 1187
schu@@ 1188
tte 1189
9@@ 1190
falsch 1191
ka 1192
ma 1193
meter 1194
tu@@ 1195
verbindung 1196
ner@@ 1197
solche 1198
erinnern 1199
ki@@ 1200
mussten 1201
per@@ 1202
interessant 1203
rau@@ 1204
vortrag 1205
7 1206
bil@@ 1207
genauso 1208
kur@@ 1209
bleiben 1210
woche 1211
direkt 1212
fragte 1213
grün@@ 1214
hinter@@ 1215
markt 1216
span@@ 1217
ße 1218
bereich 1219
suchen 1220
publikum 1221
wohn@@ 1222
aten 1223
har@@ 1224
ul@@ 1225
19@@ 1226
sollen 1227
zweite 1228
ton 1229
hü@@ 1230
namen 1231
zen@@ 1232
weg@@ 1233
gefunden 1234
tau@@ 1235
wel@@ 1236
autos 1237
sieben 1238
tter@@ 1239
wahr 1240
freunde 1241
selben 1242
fest@@ 1243
hlen 1244
pri@@ 1245
zuvor 1246
einzu@@ 1247
neues 1248
ologie 1249
dau@@ 1250
gedanken 1251
stre@@ 1252
ur 1253
danach 1254
tt 1255
kri@@ 1256
monate 1257
chen@@ 1258
gei@@ 1259
größte 1260
guten 1261
theorie 1262
en-@@ 1263
enti@@ 1264
auto@@ 1265
wusste 1266
ziert 1267
mati@@ 1268
nu@@ 1269
pl@@ 1270
setzt 1271
glücklich 1272
hast 1273
wären 1274
erschaffen 1275
plötzlich 1276
ser 1277
tri@@ 1278
fer 1279
ften 1280
zehn 1281
besteht 1282
gs 1283
kar@@ 1284
gegeben 1285
net 1286
v 1287
video 1288
digen 1289
gene 1290
sch 1291
anderer 1292
ans 1293
stoff@@ 1294
struktur 1295
testen 1296
mikro@@ 1297
technologien 1298
20@@ 1299
ba@@ 1300
reise 1301
wen@@ 1302
äch@@ 1303
dlich 1304
draußen 1305
schle@@ 1306
zä@@ 1307
berei@@ 1308
gemeinschaft 1309
nte 1310
sicht@@ 1311
völlig 1312
gew@@ 1313
ihres 1314
ländern 1315
technik 1316
stri@@ 1317
wochen 1318
gelernt 1319
glück@@ 1320
kli@@ 1321
sicht 1322
studi@@ 1323
mt 1324
nor@@ 1325
sehe 1326
fas@@ 1327
größe 1328
ppe 1329
ven 1330
zuerst 1331
ör@@ 1332
ban@@ 1333
fel 1334
luft 1335
manche 1336
sie@@ 1337
reihe 1338
sicherheit 1339
material 1340
mil@@ 1341
möchten 1342
sorgen 1343
teten 1344
heiten 1345
uren 1346
and@@ 1347
beru@@ 1348
bewusst 1349
scheint 1350
tages 1351
dis@@ 1352
ell@@ 1353
strei@@ 1354
aussehen 1355
beginnt 1356
nt 1357
bereit 1358
flu@@ 1359
team 1360
wand 1361
win@@ 1362
enz 1363
erklären 1364
flug@@ 1365
gest@@ 1366
leben@@ 1367
mor@@ 1368
sor@@ 1369
spr@@ 1370
unseres 1371
bist 1372
dig 1373
funktionieren 1374
re 1375
son@@ 1376
zeug 1377
ac@@ 1378
ang@@ 1379
fel@@ 1380
miteinander 1381
morgen 1382
pu@@ 1383
arbeitet 1384
aufgabe 1385
fest 1386
systeme 1387
ali@@ 1388
gewal@@ 1389
gewesen 1390
hervor@@ 1391
schritt 1392
studenten 1393
tter 1394
amerika 1395
flü@@ 1396
ppen 1397
anzahl 1398
erzählt 1399
pen@@ 1400
fallen 1401
fla@@ 1402
t-@@ 1403
fu@@ 1404
ine 1405
anstatt 1406
aufzu@@ 1407
daraus 1408
herr@@ 1409
lung 1410
nachdenken 1411
tatsache 1412
brachte 1413
denkt 1414
mache 1415
anfangen 1416
geworden 1417
nten 1418
prä@@ 1419
sam@@ 1420
situation 1421
bekannt 1422
it 1423
karte 1424
ker@@ 1425
passieren 1426
stimmt 1427
niemals 1428
tal@@ 1429
gerät 1430
gro@@ 1431
gruppen 1432
gs@@ 1433
ig@@ 1434
klein@@ 1435
psych@@ 1436
acht 1437
enth@@ 1438
jemals 1439
verwendet 1440
egal 1441
ffe 1442
flo@@ 1443
super@@ 1444
ton@@ 1445
traum 1446
wand@@ 1447
firma 1448
isi@@ 1449
mp@@ 1450
nacht 1451
scho@@ 1452
oren 1453
spricht 1454
2@@ 1455
bevölkerung 1456
gesicht 1457
ige 1458
jahrhundert 1459
lang@@ 1460
genannt 1461
vorstellung 1462
innen 1463
messen 1464
ach@@ 1465
bücher 1466
gende 1467
ig 1468
preis 1469
zer 1470
folgen 1471
interessan@@ 1472
schwierig 1473
steu@@ 1474
straße 1475
tö@@ 1476
0@@ 1477
eller 1478
gesundheit 1479
ju@@ 1480
kleines 1481
liegen 1482
mensch 1483
wäl@@ 1484
zeige 1485
ation 1486
bekommt 1487
elektr@@ 1488
gingen 1489
wahl 1490
eigen@@ 1491
zentr@@ 1492
beide 1493
haupt@@ 1494
bio@@ 1495
gebiet 1496
größten 1497
of 1498
ständig 1499
0ern 1500
els 1501
gän@@ 1502
holen 1503
hu@@ 1504
jen@@ 1505
ums 1506
ßt 1507
gezeigt 1508
go@@ 1509
krankheit 1510
scht 1511
sonst 1512
9 1513
car@@ 1514
ding 1515
offen@@ 1516
sto@@ 1517
fing 1518
soziale 1519
umgebung 1520
ver 1521
wol@@ 1522
000 1523
computer@@ 1524
foto 1525
gefü@@ 1526
ses 1527
sä@@ 1528
wal@@ 1529
bin@@ 1530
politik 1531
schulen 1532
allein 1533
oberfläche 1534
ord@@ 1535
wahrheit 1536
arti@@ 1537
benutzt 1538
labor 1539
stan@@ 1540
zeiten 1541
herz@@ 1542
kontrolle 1543
ob@@ 1544
ol@@ 1545
schrieb 1546
stimme 1547
to 1548
dungen 1549
öl@@ 1550
fehl@@ 1551
kel 1552
pflanzen 1553
tzt 1554
verbunden 1555
versuche 1556
gene@@ 1557
seiten 1558
spiele 1559
städte 1560
für@@ 1561
jemanden 1562
proz@@ 1563
richtige 1564
schlecht 1565
sicher@@ 1566
taten 1567
tor@@ 1568
bilden 1569
ele@@ 1570
ente 1571
rolle 1572
sonnen@@ 1573
leicht 1574
regeln 1575
ss@@ 1576
zieren 1577
bel 1578
geschrieben 1579
test 1580
werte 1581
fre@@ 1582
sozi@@ 1583
cker 1584
entfernt 1585
hälfte 1586
tät 1587
wä@@ 1588
25 1589
meinung 1590
na 1591
program@@ 1592
w 1593
bedeutung 1594
kleiner 1595
lebt 1596
satz 1597
schaut 1598
— 1599
199@@ 1600
mitte 1601
stark 1602
ähn@@ 1603
ds 1604
por@@ 1605
revolution 1606
veränderung 1607
aler 1608
ari@@ 1609
einfache 1610
gegenüber 1611
gri@@ 1612
ingen 1613
statt 1614
chtet 1615
gesprochen 1616
machten 1617
tausende 1618
fähigkeiten 1619
genen 1620
generation 1621
hält 1622
ismus 1623
kinder@@ 1624
schwier@@ 1625
verste@@ 1626
zelle 1627
hoffe 1628
mein@@ 1629
tier@@ 1630
weisen 1631
atom@@ 1632
erreicht 1633
gesam@@ 1634
mögen 1635
ei 1636
gele@@ 1637
schei@@ 1638
sonne 1639
zeich@@ 1640
80 1641
finde 1642
geboren 1643
rest 1644
blu@@ 1645
freund 1646
produ@@ 1647
zimmer 1648
betra@@ 1649
des@@ 1650
eit 1651
gekommen 1652
interessiert 1653
mä@@ 1654
programm 1655
dre@@ 1656
mehr@@ 1657
schwer@@ 1658
bli@@ 1659
spro@@ 1660
studie 1661
abzu@@ 1662
bewegt 1663
erfolg 1664
ms 1665
stellung 1666
visu@@ 1667
beziehung 1668
regi@@ 1669
schließen 1670
teilt 1671
vereinigten 1672
wann 1673
ing 1674
kin@@ 1675
komplett 1676
ks 1677
verloren 1678
absolut 1679
ansehen 1680
bekam 1681
kle@@ 1682
schie@@ 1683
wir@@ 1684
arm 1685
fil@@ 1686
heutzutage 1687
sel@@ 1688
befinden 1689
dan@@ 1690
einzelne 1691
fehler 1692
gesetzt 1693
lä@@ 1694
posi@@ 1695
tungen 1696
ven@@ 1697
vier@@ 1698
wär@@ 1699
öl 1700
ebene 1701
est 1702
gesundheits@@ 1703
hen@@ 1704
zw@@ 1705
billi@@ 1706
dachten 1707
ktion 1708
liert 1709
mm 1710
mäch@@ 1711
offensichtlich 1712
pfen 1713
sionen 1714
12 1715
ft@@ 1716
gesamte 1717
lieren 1718
mö@@ 1719
tel@@ 1720
wes@@ 1721
dro@@ 1722
herausforderung 1723
hier@@ 1724
komme 1725
sofort 1726
voller 1727
geschieht 1728
herauszufinden 1729
links 1730
plat@@ 1731
tier 1732
bre@@ 1733
krankheiten 1734
leu@@ 1735
nennt 1736
nisse 1737
stat@@ 1738
stellten 1739
trotzdem 1740
deten 1741
hle 1742
langen 1743
mitgefühl 1744
normalerweise 1745
ran@@ 1746
schnitt 1747
wachstum 1748
ähnlich 1749
60 1750
ches 1751
del@@ 1752
glichen 1753
one 1754
rat@@ 1755
sahen 1756
wieso 1757
che@@ 1758
gearbeitet 1759
linie 1760
ober@@ 1761
tod 1762
wichtige 1763
and 1764
fal@@ 1765
gar@@ 1766
hoffnung 1767
kannst 1768
schau@@ 1769
stand@@ 1770
und@@ 1771
fä@@ 1772
laden 1773
überrasch@@ 1774
tagen 1775
mieren 1776
nutz@@ 1777
sprach 1778
emp@@ 1779
gener@@ 1780
geri@@ 1781
klu@@ 1782
möglichen 1783
plan@@ 1784
schein@@ 1785
stimmen 1786
ant@@ 1787
ergebnis 1788
grenzen 1789
halte 1790
igen 1791
stische 1792
ess@@ 1793
gewinnen 1794
künstler 1795
passen 1796
bald 1797
bewusstsein 1798
dru@@ 1799
führte 1800
pac@@ 1801
ordnung 1802
entscheidungen 1803
kam@@ 1804
kla@@ 1805
sitzen 1806
unge@@ 1807
verl@@ 1808
ehr@@ 1809
wesen 1810
fassen 1811
information 1812
jo@@ 1813
kö@@ 1814
läuft 1815
the 1816
anschauen 1817
hän@@ 1818
sin@@ 1819
tlich 1820
umwelt@@ 1821
besu@@ 1822
eben 1823
fall@@ 1824
fälle 1825
gleichzeitig 1826
kunst@@ 1827
sal@@ 1828
ander@@ 1829
bl@@ 1830
herum@@ 1831
hört 1832
mei@@ 1833
vergessen 1834
weltweit 1835
zentrum 1836
alte 1837
folge 1838
hielt 1839
hä@@ 1840
kapit@@ 1841
san@@ 1842
ve 1843
bedeu@@ 1844
bestimmten 1845
funktion@@ 1846
länger 1847
monaten 1848
sozialen 1849
tigt 1850
wichtiger 1851
zeichnet 1852
fte 1853
größer 1854
mag@@ 1855
orte 1856
sieren 1857
beobachten 1858
desig@@ 1859
gedacht 1860
hab@@ 1861
hol@@ 1862
nachhal@@ 1863
os 1864
realität 1865
treiben 1866
ang 1867
begannen 1868
beri@@ 1869
effizi@@ 1870
eg@@ 1871
einzelnen 1872
techn@@ 1873
übrigens 1874
bas@@ 1875
daten@@ 1876
rede 1877
sobald 1878
spei@@ 1879
wie@@ 1880
großer 1881
gutes 1882
klas@@ 1883
produkt 1884
punkte 1885
gewöhn@@ 1886
greifen 1887
ließ 1888
netz@@ 1889
richtigen 1890
200 1891
aufmerksamkeit 1892
besit@@ 1893
evolution 1894
firmen 1895
fische 1896
ga@@ 1897
orten 1898
schl@@ 1899
abge@@ 1900
ationen 1901
deine 1902
erd@@ 1903
gemeinsam 1904
merk@@ 1905
pan@@ 1906
schneller 1907
stoffe 1908
ales 1909
bet@@ 1910
denk@@ 1911
druck 1912
europa 1913
gaben 1914
hung 1915
passierte 1916
staat@@ 1917
trä@@ 1918
verlieren 1919
zier@@ 1920
überleben 1921
10@@ 1922
18@@ 1923
500 1924
außer 1925
bessere 1926
großes 1927
ment@@ 1928
änder@@ 1929
ären 1930
len@@ 1931
medien 1932
schn@@ 1933
spaß 1934
stern 1935
wert@@ 1936
biolog@@ 1937
bleibt 1938
experiment 1939
halb 1940
kultur@@ 1941
produzieren 1942
tel 1943
tur@@ 1944
tzung 1945
volle 1946
vorher 1947
beispiele 1948
fisch 1949
klei@@ 1950
langsam 1951
nis@@ 1952
stän@@ 1953
arbeits@@ 1954
ingenie@@ 1955
sammeln 1956
tive 1957
demokratie 1958
feld 1959
lagen 1960
medizin 1961
nachzudenken 1962
nei@@ 1963
ren 1964
umwelt 1965
außerdem 1966
drücken 1967
lle 1968
schaften 1969
sprachen 1970
zumindest 1971
arbeitete 1972
bele@@ 1973
berech@@ 1974
industrie 1975
interessante 1976
nete 1977
versuchte 1978
wussten 1979
zeichnen 1980
,@@ 1981
/ 1982
amerikanischen 1983
bö@@ 1984
einfluss 1985
essen@@ 1986
hl 1987
ierte 1988
job 1989
ren@@ 1990
stei@@ 1991
winzi@@ 1992
ze@@ 1993
bestimmt 1994
geschehen 1995
nen@@ 1996
schlagen 1997
tem 1998
verstanden 1999
arbei@@ 2000
chtung 2001
entdecken 2002
nachrichten 2003
schrei@@ 2004
trag@@ 2005
verbessern 2006
energi@@ 2007
gewalt 2008
les@@ 2009
ologen 2010
sichti@@ 2011
sowohl 2012
spezies 2013
stisch 2014
wün@@ 2015
zweiten 2016
halt 2017
klasse 2018
mensch@@ 2019
plan 2020
schöne 2021
studien 2022
verb@@ 2023
chines@@ 2024
dadurch 2025
fällt 2026
haut 2027
ik 2028
innovation 2029
lose 2030
diejenigen 2031
gegangen 2032
hab 2033
krie@@ 2034
liste 2035
llt 2036
reich 2037
vertrauen 2038
vorher@@ 2039
zogen 2040
bühne 2041
mathematik 2042
my@@ 2043
oper@@ 2044
zugang 2045
anti@@ 2046
erinn@@ 2047
fein@@ 2048
kä@@ 2049
methode 2050
prinzip 2051
strom 2052
tik 2053
amerikaner 2054
brauch 2055
ckte 2056
david 2057
erzeugen 2058
ide@@ 2059
organisation 2060
äumen 2061
esen 2062
führung 2063
mathemati@@ 2064
personen 2065
prei@@ 2066
verlassen 2067
0er 2068
ffen 2069
fis@@ 2070
menschheit 2071
pas@@ 2072
dige 2073
erlaubt 2074
gesi@@ 2075
nan@@ 2076
zunehmen 2077
zü@@ 2078
frei 2079
investi@@ 2080
lern@@ 2081
mus@@ 2082
nenne 2083
rechte 2084
richten 2085
schli@@ 2086
stä@@ 2087
zeichen 2088
farbe 2089
gewis@@ 2090
gründe 2091
klein 2092
organisi@@ 2093
reich@@ 2094
scher 2095
schlag 2096
spielt 2097
stell@@ 2098
stet 2099
verständnis 2100
werk 2101
dorf 2102
erwar@@ 2103
eth@@ 2104
gewicht 2105
handelt 2106
hörte 2107
ket@@ 2108
kämpfen 2109
nachricht 2110
vergangenheit 2111
ase 2112
bur@@ 2113
dna 2114
früher 2115
herstellen 2116
köni@@ 2117
proje@@ 2118
schicken 2119
hundert 2120
konzept 2121
musi@@ 2122
neben@@ 2123
versuch 2124
wirklichkeit 2125
zustand 2126
aussieht 2127
dreht 2128
fei@@ 2129
hinaus 2130
iger 2131
sekunden 2132
stieg 2133
trans@@ 2134
warten 2135
artikel 2136
bru@@ 2137
elte 2138
geist 2139
kern 2140
papier 2141
schüler 2142
trieben 2143
universität 2144
ap@@ 2145
designer 2146
erle@@ 2147
frieden 2148
großartige 2149
irgendwo 2150
künst@@ 2151
pflan@@ 2152
schreck@@ 2153
typ 2154
worte 2155
wu@@ 2156
erhö@@ 2157
geschwindigkeit 2158
globalen 2159
hrt 2160
suche 2161
wissenschaft@@ 2162
wör@@ 2163
» 2164
arzt 2165
endlich 2166
familien 2167
fotos 2168
frü@@ 2169
grad 2170
schaff@@ 2171
stam@@ 2172
tigkeit 2173
öff@@ 2174
ball@@ 2175
brei@@ 2176
chti@@ 2177
eig@@ 2178
go 2179
gol@@ 2180
kab@@ 2181
produkte 2182
schen@@ 2183
entweder 2184
freiheit 2185
handeln 2186
tere 2187
werfen 2188
wissen@@ 2189
18 2190
a-@@ 2191
bat@@ 2192
eli@@ 2193
materialien 2194
monat 2195
neuro@@ 2196
omen 2197
ps 2198
sinne 2199
stör@@ 2200
tungs@@ 2201
verbinden 2202
« 2203
bal@@ 2204
behandlung 2205
behaup@@ 2206
brau@@ 2207
einzel@@ 2208
folgt 2209
geh@@ 2210
kranken@@ 2211
neben 2212
pr@@ 2213
steigen 2214
wählen 2215
armut 2216
chirur@@ 2217
enor@@ 2218
kontin@@ 2219
unmöglich 2220
us-@@ 2221
zahl@@ 2222
öffnen 2223
ank@@ 2224
antworten 2225
fra@@ 2226
google 2227
grö@@ 2228
haft 2229
kul@@ 2230
lam@@ 2231
niedri@@ 2232
ursprün@@ 2233
welcher 2234
chern 2235
eu@@ 2236
größ@@ 2237
gründen 2238
hilft 2239
kohlen@@ 2240
maschinen 2241
qualität 2242
tation 2243
ted@@ 2244
werk@@ 2245
aufgrund 2246
bildet 2247
geschäft 2248
identi@@ 2249
interesse 2250
kommen@@ 2251
lern 2252
version 2253
zieht 2254
entdeckt 2255
gefähr@@ 2256
krea@@ 2257
kt@@ 2258
lü@@ 2259
name 2260
netz 2261
nummer 2262
osten 2263
riesige 2264
sum@@ 2265
ure 2266
verwen@@ 2267
erzähl@@ 2268
faszinier@@ 2269
hil@@ 2270
lauf@@ 2271
lied 2272
ozean 2273
sohn 2274
stu@@ 2275
toll 2276
ant 2277
betrachtet 2278
dasselbe 2279
ergebnisse 2280
glich 2281
rechts 2282
schwe@@ 2283
bom@@ 2284
chts@@ 2285
ebenso 2286
ehe@@ 2287
forsch@@ 2288
gewinn@@ 2289
mme 2290
res@@ 2291
stunde 2292
trägt 2293
vo@@ 2294
bor@@ 2295
drehen 2296
dritte 2297
einfachen 2298
frem@@ 2299
keln 2300
las@@ 2301
leisten 2302
läu@@ 2303
objekt 2304
organ@@ 2305
region 2306
spek@@ 2307
trau@@ 2308
außergewöhn@@ 2309
dischen 2310
entschieden 2311
ermöglicht 2312
heben 2313
lar@@ 2314
neun 2315
passt 2316
perfe@@ 2317
umzu@@ 2318
alität 2319
bestimmte 2320
bieten 2321
et 2322
kompli@@ 2323
phy@@ 2324
antwor@@ 2325
arbeite 2326
belie@@ 2327
erklärt 2328
früh@@ 2329
himmel 2330
kamera 2331
tru@@ 2332
verletz@@ 2333
ani@@ 2334
don@@ 2335
fasst 2336
haf@@ 2337
hy@@ 2338
legt 2339
raum@@ 2340
rä@@ 2341
samen 2342
aller@@ 2343
armen 2344
bedro@@ 2345
druck@@ 2346
energie@@ 2347
ereig@@ 2348
fru@@ 2349
gü@@ 2350
hau@@ 2351
masse 2352
nahrung 2353
näher 2354
reichen 2355
samm@@ 2356
schafft 2357
solchen 2358
zeigte 2359
effe@@ 2360
eigent@@ 2361
endes 2362
entscheiden 2363
far@@ 2364
herz 2365
hne 2366
ier@@ 2367
kn@@ 2368
kollegen 2369
kra@@ 2370
lli@@ 2371
mals 2372
tiger 2373
trag 2374
unde 2375
video@@ 2376
wander@@ 2377
wirk@@ 2378
architektur 2379
bung 2380
gefragt 2381
gelegenheit 2382
gesamten 2383
medizin@@ 2384
meeres@@ 2385
pre@@ 2386
projekte 2387
quad@@ 2388
rate 2389
spieler 2390
stischen 2391
traf 2392
vari@@ 2393
verstand 2394
weile 2395
bank 2396
bro@@ 2397
dem@@ 2398
fluss 2399
gesetz 2400
grei@@ 2401
interak@@ 2402
los@@ 2403
matisch 2404
va@@ 2405
0-@@ 2406
befindet 2407
beginn 2408
beziehungen 2409
chung 2410
eis 2411
fällen 2412
geschäfts@@ 2413
lösungen 2414
raten 2415
ressourcen 2416
seh@@ 2417
zeuge 2418
außerhalb 2419
fle@@ 2420
flüs@@ 2421
kaum 2422
kunden 2423
menschen@@ 2424
nä@@ 2425
ät 2426
freund@@ 2427
hel@@ 2428
maß@@ 2429
oni@@ 2430
raus 2431
stü@@ 2432
untersuchen 2433
wü@@ 2434
bakterien 2435
fern@@ 2436
herzustellen 2437
ini@@ 2438
kampf 2439
kauf@@ 2440
komplex@@ 2441
landes 2442
leistung 2443
licht@@ 2444
log@@ 2445
ris@@ 2446
sten@@ 2447
trifft 2448
wirkung 2449
bau 2450
erzählte 2451
hor@@ 2452
industri@@ 2453
meer 2454
naja 2455
zunächst 2456
dn@@ 2457
hände 2458
jahr@@ 2459
sches 2460
schönheit 2461
seines 2462
sinn@@ 2463
straßen 2464
veran@@ 2465
worten 2466
wur@@ 2467
er-@@ 2468
erin 2469
geln 2470
llen 2471
pil@@ 2472
port@@ 2473
syn@@ 2474
ans@@ 2475
bezug 2476
chance 2477
dein 2478
fertig 2479
gerä@@ 2480
heim@@ 2481
leider 2482
letz@@ 2483
plasti@@ 2484
schwan@@ 2485
west@@ 2486
wirtschafts@@ 2487
zell@@ 2488
auswirkungen 2489
biologie 2490
bot@@ 2491
bra@@ 2492
bran@@ 2493
bürger@@ 2494
getroffen 2495
hinzu@@ 2496
schlechte 2497
stände 2498
ttern 2499
verkaufen 2500
auen 2501
bild@@ 2502
fähig 2503
gehirn@@ 2504
geschaffen 2505
geschlossen 2506
hör@@ 2507
individu@@ 2508
mier@@ 2509
nicht-@@ 2510
ras@@ 2511
äre 2512
auff@@ 2513
ca. 2514
eigenschaften 2515
einzigen 2516
fläche 2517
heit@@ 2518
herausfinden 2519
mechan@@ 2520
natur@@ 2521
siert 2522
spitze 2523
y-@@ 2524
aktu@@ 2525
aren 2526
bisher 2527
ender 2528
gehirns 2529
kämp@@ 2530
leidenschaft 2531
organisationen 2532
sich@@ 2533
uhr 2534
unglaubliche 2535
ust 2536
wagen 2537
wege 2538
bahn 2539
brechen 2540
erfahren 2541
erstens 2542
extrem 2543
freude 2544
letztes 2545
million 2546
uni@@ 2547
voraus@@ 2548
ame 2549
deswegen 2550
dlichen 2551
dynam@@ 2552
flugzeug 2553
gal@@ 2554
großartig 2555
km 2556
poli@@ 2557
software 2558
werkzeuge 2559
wichtigste 2560
brü@@ 2561
erneu@@ 2562
finanzi@@ 2563
geräte 2564
glaub@@ 2565
has@@ 2566
lernte 2567
moral@@ 2568
steckt 2569
zeitpunkt 2570
abend 2571
ce 2572
chs@@ 2573
dün@@ 2574
hiv 2575
hunderte 2576
john 2577
konferenz 2578
krankenhaus 2579
leiden 2580
rund 2581
sexu@@ 2582
zie@@ 2583
70 2584
90 2585
bedingungen 2586
fühlt 2587
indi@@ 2588
keiner 2589
kraft@@ 2590
lag 2591
reaktion 2592
retten 2593
schutz 2594
stau@@ 2595
wil@@ 2596
ür@@ 2597
chtes 2598
erinnere 2599
fin@@ 2600
führer 2601
ktor 2602
mat@@ 2603
nation@@ 2604
typen 2605
währ@@ 2606
198@@ 2607
benutz@@ 2608
ca 2609
off@@ 2610
pat@@ 2611
schluss 2612
schönen 2613
spreche 2614
vielfalt 2615
vollen 2616
westen 2617
aufgaben 2618
ehrlich 2619
erwarten 2620
fuhr 2621
krise 2622
la 2623
sam 2624
systems 2625
säu@@ 2626
vol@@ 2627
z.b. 2628
zin@@ 2629
zy@@ 2630
bewe@@ 2631
heu@@ 2632
inspiri@@ 2633
lasst 2634
luft@@ 2635
mehrere 2636
netzwerk 2637
politi@@ 2638
regel@@ 2639
statt@@ 2640
stattdessen 2641
unterschiedliche 2642
erfü@@ 2643
fern 2644
fro@@ 2645
hr 2646
jün@@ 2647
keits@@ 2648
schwar@@ 2649
sodass 2650
sol@@ 2651
ss 2652
unden 2653
unterschiede 2654
veränderungen 2655
virus 2656
vorzu@@ 2657
zo@@ 2658
beschrei@@ 2659
blas@@ 2660
ebenfalls 2661
erfolgreich 2662
gefä@@ 2663
glei@@ 2664
hoff@@ 2665
mach@@ 2666
mente 2667
mitten 2668
rechten 2669
schützen 2670
stär@@ 2671
sy@@ 2672
wirken 2673
1,@@ 2674
angefangen 2675
auge 2676
ganzes 2677
gesellschaften 2678
globale 2679
grundle@@ 2680
informa@@ 2681
inn@@ 2682
klima@@ 2683
mau@@ 2684
mögliche 2685
nahe 2686
nehme 2687
position 2688
sische 2689
strukturen 2690
weite 2691
ator 2692
blin@@ 2693
form@@ 2694
geführt 2695
ha 2696
kün@@ 2697
lieb@@ 2698
mas@@ 2699
maßen 2700
medikamente 2701
regierungen 2702
religion 2703
verrückt 2704
zustellen 2705
ahnung 2706
alisi@@ 2707
bewer@@ 2708
bäume 2709
chter@@ 2710
digung 2711
elektro@@ 2712
erfunden 2713
jahrzehn@@ 2714
kostet 2715
radi@@ 2716
ruf 2717
rufen 2718
sprech@@ 2719
sung 2720
tin@@ 2721
verbindungen 2722
verein@@ 2723
veröffent@@ 2724
öffentlichen 2725
bemerkens@@ 2726
jahrhunderts 2727
physik 2728
sse 2729
ther@@ 2730
trieb 2731
gehe 2732
geru@@ 2733
glob@@ 2734
gste 2735
höch@@ 2736
ia 2737
innova@@ 2738
jene 2739
karten 2740
konzentrieren 2741
kun@@ 2742
leid 2743
ls 2744
miert 2745
männ@@ 2746
pfer@@ 2747
produktion 2748
prü@@ 2749
rü@@ 2750
teri@@ 2751
zes 2752
zeu@@ 2753
öffnet 2754
bon@@ 2755
büro 2756
elles 2757
jemandem 2758
schritte 2759
schätzen 2760
sm@@ 2761
tat@@ 2762
verantwortung 2763
ah 2764
brenn@@ 2765
demokra@@ 2766
geschafft 2767
guter 2768
hinder@@ 2769
kilometer 2770
rat 2771
sat@@ 2772
stes 2773
trei@@ 2774
unterstützen 2775
wichtigsten 2776
behandeln 2777
del 2778
dien@@ 2779
einzigarti@@ 2780
erwä@@ 2781
fragt 2782
freu@@ 2783
gere@@ 2784
herzen 2785
heutigen 2786
hinein 2787
hängt 2788
konsu@@ 2789
online 2790
ozean@@ 2791
rich@@ 2792
ry 2793
schil@@ 2794
schlä@@ 2795
solar@@ 2796
tausend 2797
dische 2798
entlich 2799
farben 2800
finger 2801
respe@@ 2802
wohin 2803
öko@@ 2804
eigenes 2805
englisch 2806
fanta@@ 2807
kosten@@ 2808
lebte 2809
nahme 2810
ruhi@@ 2811
stecken 2812
tief 2813
tür 2814
ärzte 2815
ach 2816
echte 2817
erleben 2818
erungen 2819
größeren 2820
lief 2821
nieder@@ 2822
nü@@ 2823
regel 2824
schlu@@ 2825
stein 2826
tren@@ 2827
typ@@ 2828
verk@@ 2829
verwand@@ 2830
afrikan@@ 2831
alismus 2832
anz 2833
beu@@ 2834
digt 2835
gefühle 2836
mes 2837
modelle 2838
pel 2839
rus@@ 2840
senden 2841
waffen 2842
zweitens 2843
erzeugt 2844
fen@@ 2845
frieden@@ 2846
holt 2847
sper@@ 2848
wenden 2849
wenige 2850
16 2851
diagno@@ 2852
entfern@@ 2853
entscheiden@@ 2854
entwicklungs@@ 2855
fuß@@ 2856
geschah 2857
gewä@@ 2858
häuser 2859
sischen 2860
verbringen 2861
echt 2862
entscheidung 2863
gebe 2864
größere 2865
ill@@ 2866
inge 2867
ließen 2868
oten 2869
pra@@ 2870
schte 2871
wechsel@@ 2872
analy@@ 2873
brauchte 2874
entschied 2875
erfahrungen 2876
erlauben 2877
fenster 2878
freunden 2879
fängt 2880
fühlte 2881
rieben 2882
seien 2883
sex 2884
sigkeit 2885
tsch@@ 2886
unterneh@@ 2887
weib@@ 2888
wunsch 2889
ys 2890
zieh@@ 2891
ände 2892
alisierung 2893
band 2894
blut@@ 2895
einkommen 2896
folgendes 2897
frühen 2898
hey 2899
kern@@ 2900
tab@@ 2901
träge 2902
wahl@@ 2903
barkeit 2904
belo@@ 2905
dr. 2906
existiert 2907
fügen 2908
gliche 2909
habt 2910
hunder@@ 2911
konzentri@@ 2912
loch 2913
neuronen 2914
zwan@@ 2915
achten 2916
beeinflusst 2917
begonnen 2918
erstaunlich 2919
frie@@ 2920
genutzt 2921
greif@@ 2922
gsten 2923
k-@@ 2924
kommunikation 2925
stor@@ 2926
verfügung 2927
vorbei 2928
weiss 2929
augen@@ 2930
berühm@@ 2931
blau@@ 2932
bren@@ 2933
chris 2934
erstaun@@ 2935
erstes 2936
förder@@ 2937
histor@@ 2938
not@@ 2939
nungen 2940
o-@@ 2941
reak@@ 2942
selts@@ 2943
staat 2944
struk@@ 2945
tho@@ 2946
blä@@ 2947
chem@@ 2948
deu@@ 2949
ität 2950
kel@@ 2951
küste 2952
lauf 2953
museum 2954
nissen 2955
prakti@@ 2956
produziert 2957
runter 2958
see 2959
sicherlich 2960
sucht 2961
tritt 2962
wind 2963
wirtschaft@@ 2964
amerikanische 2965
brot 2966
daß 2967
ferti@@ 2968
höhe 2969
losen 2970
ta 2971
üs@@ 2972
300 2973
bab@@ 2974
bildungs@@ 2975
einhalb 2976
glaubt 2977
modernen 2978
nächstes 2979
ou@@ 2980
physi@@ 2981
pun@@ 2982
ted-@@ 2983
wörter 2984
arab@@ 2985
begeg@@ 2986
com@@ 2987
dorthin 2988
gelöst 2989
gewebe 2990
hte 2991
innen@@ 2992
investieren 2993
komplexität 2994
kreativität 2995
nord@@ 2996
operation 2997
orien 2998
politischen 2999
recht@@ 3000
stücke 3001
tolle 3002
zeug@@ 3003
zug 3004
zusammenhang 3005
besor@@ 3006
desto 3007
ecke 3008
erinnert 3009
infrastruktur 3010
rein@@ 3011
schafts@@ 3012
schwester 3013
sekunde 3014
tas@@ 3015
these 3016
tochter 3017
ökonom@@ 3018
baut 3019
beteili@@ 3020
fernsehen 3021
fuß 3022
partner 3023
persön@@ 3024
politische 3025
schrift 3026
ungspro@@ 3027
verfolgen 3028
wirst 3029
bun@@ 3030
entdeck@@ 3031
familien@@ 3032
freien 3033
fäl@@ 3034
fühl@@ 3035
fühle 3036
ham@@ 3037
hart 3038
hnt 3039
impf@@ 3040
linken 3041
mars 3042
nähe 3043
schien 3044
schutz@@ 3045
sl@@ 3046
somit 3047
stie@@ 3048
tin 3049
unsicht@@ 3050
wach@@ 3051
weiterhin 3052
wuchs 3053
zehn@@ 3054
zierte 3055
ansatz 3056
ausbildung 3057
ausdruck 3058
bitten 3059
botschaft 3060
deutlich 3061
einfach@@ 3062
ernst 3063
feuer 3064
male 3065
pal@@ 3066
reg@@ 3067
reisen 3068
teren 3069
affen 3070
baum 3071
cks 3072
däch@@ 3073
effekt 3074
gehalten 3075
gem 3076
kontrollieren 3077
mess@@ 3078
nütz@@ 3079
top@@ 3080
zur@@ 3081
ann 3082
baby 3083
bruch 3084
char@@ 3085
chs 3086
ermöglichen 3087
gebäu@@ 3088
redu@@ 3089
spar@@ 3090
stuhl 3091
sub@@ 3092
will@@ 3093
wissenschaftliche 3094
zerstör@@ 3095
zog 3096
bares 3097
bildern 3098
dire@@ 3099
emotion@@ 3100
funk@@ 3101
gelegt 3102
gestal@@ 3103
got@@ 3104
irgendwann 3105
kreu@@ 3106
materie 3107
mond 3108
ries@@ 3109
riesigen 3110
stag 3111
töten 3112
unbe@@ 3113
ungsk@@ 3114
verrück@@ 3115
verur@@ 3116
verursacht 3117
weiten 3118
werkzeug 3119
ück@@ 3120
afghanistan 3121
allerdings 3122
benötigen 3123
besonder@@ 3124
bestehen 3125
dat@@ 3126
erungs@@ 3127
funktion 3128
gewonnen 3129
haufen 3130
männern 3131
offen 3132
quelle 3133
risiko 3134
schwi@@ 3135
stolz 3136
techni@@ 3137
tiver 3138
treib@@ 3139
trotz 3140
universums 3141
wärts 3142
aktivität 3143
arme 3144
begriff 3145
bis@@ 3146
dennoch 3147
durchschnitt@@ 3148
erwartet 3149
feu@@ 3150
fleisch 3151
gemeinde 3152
gesetze 3153
kriegen 3154
linien 3155
natürliche 3156
problemen 3157
tend 3158
tür@@ 3159
verkauft 3160
wächst 3161
za@@ 3162
boot 3163
dor@@ 3164
einfacher 3165
elli@@ 3166
grenze 3167
kenne 3168
ley 3169
massen@@ 3170
nerven@@ 3171
reagieren 3172
roten 3173
setzung 3174
videos 3175
wen 3176
wiederum 3177
benötigt 3178
berg 3179
dagegen 3180
dok@@ 3181
entstehen 3182
filme 3183
fotogra@@ 3184
hoffentlich 3185
kreis 3186
mod@@ 3187
mot@@ 3188
schaft@@ 3189
sterne 3190
tivität 3191
vision 3192
vorberei@@ 3193
vorstell@@ 3194
wald 3195
xi@@ 3196
aufgenommen 3197
aufnahme 3198
chi@@ 3199
drü@@ 3200
ed 3201
entwickelten 3202
erforschen 3203
gestalten 3204
ingt 3205
lat@@ 3206
letztendlich 3207
ly 3208
selber 3209
sozusagen 3210
ters 3211
verbesser@@ 3212
dopp@@ 3213
klang 3214
london 3215
möglicherweise 3216
objekte 3217
städten 3218
tan 3219
trie@@ 3220
äuß@@ 3221
behalten 3222
beschäftigt 3223
davor 3224
dun@@ 3225
dur@@ 3226
erfin@@ 3227
gas@@ 3228
gebiete 3229
kehren 3230
lege 3231
nes 3232
religiö@@ 3233
standen 3234
wahrscheinlichkeit 3235
acht@@ 3236
au 3237
ca@@ 3238
city 3239
code 3240
dauert 3241
deut@@ 3242
entlang 3243
klimawandel 3244
saß 3245
versorgung 3246
beine 3247
besser@@ 3248
bürger 3249
ckten 3250
einsatz 3251
forscher 3252
hit@@ 3253
jahres 3254
jährigen 3255
klingt 3256
nahrungs@@ 3257
regen@@ 3258
sparen 3259
tei@@ 3260
web@@ 3261
zurückzu@@ 3262
14 3263
atmosphäre 3264
atur 3265
beschle@@ 3266
fortschritt 3267
gelangen 3268
gend@@ 3269
hir@@ 3270
perspektive 3271
richard 3272
verdienen 3273
vergleich 3274
agi@@ 3275
aktivi@@ 3276
basis 3277
chin@@ 3278
dieselbe 3279
einzi@@ 3280
ele 3281
erstellen 3282
ese 3283
finanz@@ 3284
fort 3285
fotografi@@ 3286
gedanke 3287
gestern 3288
onie 3289
ons 3290
plä@@ 3291
produk@@ 3292
selb@@ 3293
soldaten 3294
süd@@ 3295
todes@@ 3296
toll@@ 3297
zuhause 3298
ate 3299
aufre@@ 3300
festi@@ 3301
fiel 3302
gelassen 3303
herausgefunden 3304
intelligenz 3305
kräfte 3306
laut 3307
lok@@ 3308
miss@@ 3309
moleküle 3310
schlag@@ 3311
steuern 3312
vollständig 3313
worüber 3314
ändert 3315
algorith@@ 3316
arch@@ 3317
eis@@ 3318
engli@@ 3319
erleb@@ 3320
ernsthaf@@ 3321
gewi@@ 3322
großbritannien 3323
hirn@@ 3324
hun@@ 3325
iges 3326
jobs 3327
jährige 3328
lautet 3329
ler@@ 3330
lin 3331
rad 3332
schalten 3333
scheinen 3334
schwei@@ 3335
setzte 3336
sommer 3337
stige 3338
temperatur 3339
ücken 3340
11 3341
alisieren 3342
bewegungen 3343
buchstäblich 3344
erfol@@ 3345
experten 3346
kontrolli@@ 3347
kür@@ 3348
organismen 3349
profi@@ 3350
verdi@@ 3351
vollkommen 3352
zukünf@@ 3353
ass 3354
aut 3355
darf 3356
fach@@ 3357
heili@@ 3358
imm@@ 3359
ina 3360
kei@@ 3361
kombin@@ 3362
komm@@ 3363
kommunizieren 3364
kurzem 3365
lungen 3366
methoden 3367
prot@@ 3368
sel 3369
sitzt 3370
stad@@ 3371
steh@@ 3372
steigt 3373
teilchen 3374
themen 3375
untersu@@ 3376
verschie@@ 3377
virtu@@ 3378
wesentlichen 3379
zun@@ 3380
zusammenarbeit 3381
197@@ 3382
behandelt 3383
berü@@ 3384
betr@@ 3385
chan@@ 3386
dimension@@ 3387
durchgeführt 3388
fun@@ 3389
gilt 3390
id 3391
jungs 3392
kauft 3393
kno@@ 3394
phänomen 3395
räume 3396
sc@@ 3397
schlie@@ 3398
tauchen 3399
teste 3400
weiteren 3401
äf@@ 3402
besseren 3403
bezahlen 3404
entwerfen 3405
fiziert 3406
hielten 3407
karriere 3408
landschaft 3409
meistens 3410
präsident 3411
sogenan@@ 3412
sozial@@ 3413
unterstützung 3414
anwen@@ 3415
ball 3416
beeinflussen 3417
hinein@@ 3418
konfli@@ 3419
kontakt 3420
lichsten 3421
meilen 3422
multi@@ 3423
roll@@ 3424
unbedingt 3425
wahre 3426
wunderbare 3427
zus@@ 3428
20. 3429
besitzen 3430
entwickelte 3431
erkrank@@ 3432
ey 3433
film@@ 3434
finan@@ 3435
fragten 3436
gefängnis 3437
hohen 3438
ic@@ 3439
kommuni@@ 3440
kümmern 3441
landwirtschaft 3442
orienti@@ 3443
park 3444
rö@@ 3445
setz@@ 3446
spä@@ 3447
starb 3448
stufe 3449
tex@@ 3450
trauri@@ 3451
tz 3452
vermutlich 3453
veröffentlicht 3454
asien 3455
begren@@ 3456
bie@@ 3457
derzeit 3458
eng@@ 3459
fähi@@ 3460
gh@@ 3461
hauptsächlich 3462
ignor@@ 3463
ium 3464
kil@@ 3465
klin@@ 3466
krebs@@ 3467
mischen 3468
reicht 3469
symme@@ 3470
vermu@@ 3471
welchen 3472
ziele 3473
zufällig 3474
zung 3475
ök@@ 3476
alisiert 3477
arbeiter 3478
charak@@ 3479
dritten 3480
experimente 3481
gelan@@ 3482
geschen@@ 3483
geschi@@ 3484
geschä@@ 3485
gie 3486
hergestellt 3487
inger 3488
kontro@@ 3489
ktionen 3490
laufe 3491
milliarde 3492
nochmal 3493
rein 3494
schwarze 3495
titel 3496
viren 3497
wandel 3498
13 3499
dy 3500
entsteht 3501
garten 3502
gezogen 3503
großteil 3504
irgendetwas 3505
kehr@@ 3506
konstru@@ 3507
lation 3508
materi@@ 3509
mc@@ 3510
perfekt 3511
schicht 3512
tierte 3513
ack@@ 3514
aktiv 3515
amer@@ 3516
außen@@ 3517
bekannten 3518
beschreiben 3519
bü@@ 3520
cool 3521
dar 3522
fung 3523
gegensei@@ 3524
gelesen 3525
geschle@@ 3526
graben 3527
hohe 3528
integri@@ 3529
mengen 3530
stir@@ 3531
umgehen 3532
uss 3533
vergleichen 3534
vö@@ 3535
weiteres 3536
zierten 3537
zuhören 3538
überzeugen 3539
überzeugt 3540
2000 3541
24 3542
betrifft 3543
elten 3544
ev@@ 3545
fri@@ 3546
lass 3547
milli@@ 3548
mitg@@ 3549
neugi@@ 3550
noten 3551
per 3552
stig 3553
stür@@ 3554
woher 3555
älter 3556
ama@@ 3557
behand@@ 3558
bot 3559
endet 3560
erenden 3561
fli@@ 3562
gewissen 3563
han@@ 3564
intensi@@ 3565
morgens 3566
neuer 3567
schö@@ 3568
ständen 3569
täglich 3570
uns@@ 3571
unterschiedlichen 3572
wissenschaftlichen 3573
yp@@ 3574
aids 3575
basiert 3576
bett 3577
bir@@ 3578
brachten 3579
demon@@ 3580
dritt@@ 3581
elemente 3582
erende 3583
erster 3584
gehei@@ 3585
herunter@@ 3586
kurze 3587
lernt 3588
lieber 3589
mär@@ 3590
präsentiert 3591
rahmen 3592
train@@ 3593
unabhängi@@ 3594
verbracht 3595
verhindern 3596
vertei@@ 3597
werten 3598
wirtschaftlichen 3599
wohner 3600
zeugen 3601
übertragen 3602
anderem 3603
begeistert 3604
ci@@ 3605
dahin 3606
dank@@ 3607
dieren 3608
drittel 3609
erkannte 3610
fischen 3611
flächen 3612
fordert 3613
gefahr 3614
kenn@@ 3615
könnt 3616
om 3617
pe 3618
pingu@@ 3619
stens 3620
stoßen 3621
stö@@ 3622
tue 3623
weder 3624
werke 3625
allge@@ 3626
anten 3627
arb@@ 3628
arbeiteten 3629
aufnahmen 3630
außer@@ 3631
einsetzen 3632
falsche 3633
gerü@@ 3634
gespielt 3635
handel 3636
hinweg 3637
insekten 3638
japan 3639
mini@@ 3640
mütter 3641
neten 3642
normale 3643
obje@@ 3644
schwimmen 3645
sowie 3646
steller 3647
theit 3648
u-@@ 3649
wunderbar 3650
zin 3651
anda 3652
bildschirm 3653
brauchten 3654
brust@@ 3655
dicht 3656
dürfen 3657
echten 3658
errei@@ 3659
erzähle 3660
fig@@ 3661
gelei@@ 3662
gerung 3663
gkeiten 3664
hi 3665
hintergrund 3666
häl@@ 3667
kennt 3668
klassen@@ 3669
krimin@@ 3670
lig 3671
meister 3672
netzwerke 3673
pla@@ 3674
sichten 3675
uner@@ 3676
verbreitet 3677
wachen 3678
zig 3679
entwickl@@ 3680
führten 3681
griff 3682
häu@@ 3683
institutionen 3684
iran 3685
malen 3686
mitteln 3687
ologe 3688
starke 3689
sterb@@ 3690
teu@@ 3691
trin@@ 3692
ungskraft 3693
verlangen 3694
400 3695
akt 3696
behör@@ 3697
blei@@ 3698
büro@@ 3699
dom@@ 3700
dungs@@ 3701
fördern 3702
großarti@@ 3703
ktiv 3704
kön@@ 3705
lachen 3706
lebten 3707
letzt 3708
mission 3709
pen 3710
praktisch 3711
ra 3712
schri@@ 3713
spiegel 3714
stenz 3715
strö@@ 3716
univer@@ 3717
zauber@@ 3718
15@@ 3719
bauern 3720
bereiche 3721
blo@@ 3722
dene 3723
dichte 3724
eingesetzt 3725
erweiter@@ 3726
fes@@ 3727
forschungs@@ 3728
gewisse 3729
hund 3730
isch@@ 3731
itäten 3732
journ@@ 3733
kolle@@ 3734
kompon@@ 3735
las 3736
magne@@ 3737
medi@@ 3738
musli@@ 3739
ogra@@ 3740
san 3741
tiefe 3742
zeitalter 3743
argu@@ 3744
asi@@ 3745
blut 3746
col@@ 3747
dienst@@ 3748
fingen 3749
gabe 3750
gehabt 3751
geladen 3752
intelligen@@ 3753
nannte 3754
richtet 3755
roman@@ 3756
rücken 3757
ungewöhn@@ 3758
vermögen 3759
wurz@@ 3760
2-@@ 3761
alleine 3762
bestimmen 3763
dig@@ 3764
drän@@ 3765
erfolgrei@@ 3766
f-@@ 3767
geburt 3768
geheim@@ 3769
gren@@ 3770
interessieren 3771
kogni@@ 3772
ktiven 3773
kürzlich 3774
menten 3775
raus@@ 3776
schaute 3777
schlei@@ 3778
tam@@ 3779
th 3780
verwandeln 3781
wom@@ 3782
zubringen 3783
1. 3784
10.000 3785
behinder@@ 3786
blick@@ 3787
buch@@ 3788
din@@ 3789
einander@@ 3790
fett@@ 3791
gehirne 3792
geld@@ 3793
gent@@ 3794
getötet 3795
glücklicherweise 3796
herausforderungen 3797
ierten 3798
inen 3799
kalifornien 3800
knochen 3801
leistungen 3802
mark@@ 3803
pli@@ 3804
schlimm@@ 3805
school 3806
sichtlich 3807
sorge 3808
stein@@ 3809
than 3810
therapie 3811
träume 3812
täten 3813
verbreiten 3814
versuchten 3815
verzwei@@ 3816
wahrnehmung 3817
winkel 3818
wirkt 3819
ägyp@@ 3820
196@@ 3821
abhängig 3822
autor@@ 3823
bekamen 3824
bemerkt 3825
bs 3826
dam@@ 3827
deckt 3828
disku@@ 3829
erklär@@ 3830
erstaunliche 3831
fährt 3832
gebro@@ 3833
gehören 3834
gese@@ 3835
herr 3836
händen 3837
irak 3838
leb@@ 3839
lichem 3840
liebt 3841
mel 3842
mäß@@ 3843
opfer 3844
pfei@@ 3845
platt@@ 3846
refle@@ 3847
scha@@ 3848
sweise 3849
telefon 3850
tnis 3851
treibt 3852
umge@@ 3853
verantwortlich 3854
wenig@@ 3855
wichti@@ 3856
zählen 3857
ähnliche 3858
45 3859
alter@@ 3860
aufhören 3861
babys 3862
bauten 3863
dienen 3864
doppelt 3865
elektron@@ 3866
erkenntnis 3867
fünf@@ 3868
gere 3869
gewand@@ 3870
hn 3871
kes 3872
moderne 3873
rt 3874
september 3875
spruch 3876
streben 3877
sur@@ 3878
teilung 3879
vertrau@@ 3880
vögel 3881
wahren 3882
öffentlichkeit 3883
$ 3884
ater 3885
bloß 3886
ech@@ 3887
genauer 3888
inn 3889
kontext 3890
n-@@ 3891
nation 3892
nutzt 3893
paul 3894
stigen 3895
tiges 3896
tigung 3897
vern@@ 3898
washington 3899
weißen 3900
weißt 3901
wow 3902
ameisen 3903
bedeuten 3904
bill 3905
bus 3906
cen 3907
chten@@ 3908
cker@@ 3909
eindruck 3910
epide@@ 3911
erseits 3912
ever@@ 3913
gas 3914
gemü@@ 3915
geschickt 3916
heits@@ 3917
inspiriert 3918
klini@@ 3919
kurs 3920
künstler@@ 3921
ld 3922
leg@@ 3923
maus 3924
militär@@ 3925
minute 3926
nah@@ 3927
rechts@@ 3928
samer 3929
sand 3930
schmerz 3931
tie@@ 3932
tischer 3933
wachsen@@ 3934
zeichnungen 3935
äne 3936
überprü@@ 3937
überrascht 3938
ansicht 3939
beeindruck@@ 3940
bezahlt 3941
dauern 3942
drin 3943
europä@@ 3944
ff 3945
fres@@ 3946
früh 3947
gegenteil 3948
immer@@ 3949
ins@@ 3950
interagieren 3951
intervie@@ 3952
kurzen 3953
lieblings@@ 3954
mut 3955
normalen 3956
polizei 3957
ppt 3958
professor 3959
robot@@ 3960
signale 3961
stimm@@ 3962
unternehmer 3963
wisst 3964
öffentliche 3965
17 3966
aff@@ 3967
alisten 3968
atem@@ 3969
ath@@ 3970
berg@@ 3971
bienen 3972
co2 3973
erst@@ 3974
eure 3975
gefahren 3976
grün 3977
insel 3978
körpers 3979
lebewesen 3980
läch@@ 3981
ori@@ 3982
sion@@ 3983
trie 3984
verhältnis 3985
verschwinden 3986
wiesen 3987
zten 3988
ön@@ 3989
atz 3990
aufbauen 3991
barer 3992
bietet 3993
deinen 3994
erklärung 3995
ernährung 3996
erscheinen 3997
fahrer 3998
gesetz@@ 3999
gespräch 4000
identität 4001
ing-@@ 4002
institu@@ 4003
kung 4004
markt@@ 4005
mindestens 4006
nah 4007
rief 4008
schaf@@ 4009
sche@@ 4010
schlüssel@@ 4011
starten 4012
tanz 4013
verbindet 4014
verwal@@ 4015
wegs 4016
akzep@@ 4017
brauche 4018
chts 4019
ette 4020
existieren 4021
gesprä@@ 4022
gestorben 4023
grundlegende 4024
gäbe 4025
haltung 4026
hmen 4027
häufig 4028
individuen 4029
konzep@@ 4030
kopf@@ 4031
ktive 4032
lichkeiten 4033
ly@@ 4034
meiste 4035
musst 4036
persönliche 4037
sauerstoff 4038
seitdem 4039
sicherheits@@ 4040
sphäre 4041
stal@@ 4042
terie 4043
tiv@@ 4044
verhaltens@@ 4045
verkauf@@ 4046
verschmu@@ 4047
vorteil 4048
werbung 4049
ah@@ 4050
angenommen 4051
ank 4052
anrei@@ 4053
anten@@ 4054
erfinden 4055
erhält 4056
experim@@ 4057
fizieren 4058
gegensatz 4059
generationen 4060
hoffen 4061
höher 4062
j 4063
nap@@ 4064
ns 4065
patient 4066
pfe 4067
red@@ 4068
reduzieren 4069
sar@@ 4070
schlechten 4071
schreib@@ 4072
som@@ 4073
spit@@ 4074
tives 4075
tzlich 4076
unterscheiden 4077
verschieden@@ 4078
abstra@@ 4079
augenblick 4080
berührt 4081
ble@@ 4082
blü@@ 4083
chem 4084
demo@@ 4085
einheit 4086
ess 4087
fernseh@@ 4088
gieren 4089
igkeit 4090
inneren 4091
japan@@ 4092
komplexe 4093
krank 4094
krank@@ 4095
kulturen 4096
kus@@ 4097
leiten 4098
mie 4099
normal 4100
peri@@ 4101
rätsel 4102
schlüssel 4103
schnell@@ 4104
strategie 4105
stung 4106
tes@@ 4107
total 4108
trug 4109
tur 4110
äd@@ 4111
abschluss 4112
ade 4113
anischen 4114
arbeit@@ 4115
arkti@@ 4116
benen 4117
beob@@ 4118
beschäf@@ 4119
brech@@ 4120
charles 4121
debat@@ 4122
doku@@ 4123
drückt 4124
dy@@ 4125
einiger 4126
england 4127
fisch@@ 4128
gegenwär@@ 4129
heisst 4130
itä@@ 4131
kari@@ 4132
king 4133
klar@@ 4134
lebenden 4135
met@@ 4136
mmen 4137
musik@@ 4138
märkte 4139
nachbar@@ 4140
nieman@@ 4141
näher@@ 4142
olog@@ 4143
regen 4144
relativ 4145
rop@@ 4146
sand@@ 4147
schni@@ 4148
sive 4149
sz@@ 4150
toren 4151
täusch@@ 4152
unterschie@@ 4153
150 4154
annehmen 4155
bekann@@ 4156
beweg@@ 4157
blau 4158
bus@@ 4159
cken@@ 4160
dä@@ 4161
emotionen 4162
entschei@@ 4163
faktor 4164
forder@@ 4165
hmt 4166
hypo@@ 4167
instal@@ 4168
jugend@@ 4169
kurz@@ 4170
kus 4171
moder@@ 4172
nationen 4173
nden 4174
ok@@ 4175
op 4176
organis@@ 4177
path@@ 4178
riff 4179
schneiden 4180
sequenzen 4181
systemen 4182
tor 4183
welle 4184
wichtigen 4185
wobei 4186
zunehmen@@ 4187
züge 4188
35 4189
anwenden 4190
architekten 4191
bahn@@ 4192
bat 4193
baum@@ 4194
bedarf 4195
beglei@@ 4196
beschrän@@ 4197
besondere 4198
dach 4199
dran 4200
drüben 4201
entspricht 4202
erer 4203
gefährlich 4204
glas 4205
holz 4206
jung@@ 4207
kunft 4208
notwen@@ 4209
privat@@ 4210
quellen 4211
resul@@ 4212
schmerzen 4213
sheit 4214
sitz@@ 4215
soviel 4216
spüren 4217
syste@@ 4218
up@@ 4219
vorfahren 4220
wan@@ 4221
wechseln 4222
wenigen 4223
worfen 4224
wunden 4225
12@@ 4226
17@@ 4227
ative 4228
brasili@@ 4229
bruder 4230
entdeckung 4231
ernä@@ 4232
esse 4233
flug 4234
genau@@ 4235
gessen 4236
issen 4237
klär@@ 4238
konser@@ 4239
nde 4240
politiker 4241
rechen@@ 4242
regionen 4243
sha@@ 4244
stammt 4245
stoffen 4246
technolog@@ 4247
unterricht 4248
verfügbar 4249
wein@@ 4250
angeb@@ 4251
angeneh@@ 4252
aufgebaut 4253
bedürf@@ 4254
bemer@@ 4255
bestand 4256
big 4257
cou@@ 4258
definieren 4259
details 4260
dutz@@ 4261
fantastisch 4262
kts 4263
langwei@@ 4264
leiden@@ 4265
messer 4266
mittleren 4267
mobil@@ 4268
national 4269
nötig 4270
persönlich 4271
persönlichen 4272
positive 4273
q@@ 4274
schaden 4275
schlimmer 4276
schuhe 4277
sion 4278
solch 4279
trinken 4280
vat@@ 4281
wechsel 4282
zuschau@@ 4283
aspekt 4284
begri@@ 4285
bein@@ 4286
beweise 4287
defini@@ 4288
dinosaurier 4289
dliche 4290
entschul@@ 4291
erscheint 4292
fie 4293
fän@@ 4294
geni@@ 4295
genom 4296
grundsätzlich 4297
gst 4298
internet@@ 4299
lager 4300
liter@@ 4301
marki@@ 4302
mung 4303
nachbarn 4304
nega@@ 4305
normal@@ 4306
notwendig 4307
nungs@@ 4308
pft 4309
planet 4310
potenzi@@ 4311
schrift@@ 4312
schwä@@ 4313
sprach@@ 4314
stin 4315
städ@@ 4316
tests 4317
tiker 4318
transpar@@ 4319
verfü@@ 4320
vergan@@ 4321
web 4322
wunder 4323
yo@@ 4324
ai@@ 4325
bende 4326
best@@ 4327
bestimm@@ 4328
bibliothe@@ 4329
christ@@ 4330
dest 4331
digitalen 4332
digkeit 4333
dimensionen 4334
erkennt 4335
ersetzen 4336
feuer@@ 4337
folgende 4338
galaxie 4339
galaxien 4340
gerechtigkeit 4341
helden 4342
here 4343
instru@@ 4344
israel 4345
korruption 4346
lebenser@@ 4347
lun@@ 4348
medizinische 4349
mes@@ 4350
minister 4351
nam@@ 4352
natürlichen 4353
opti@@ 4354
richtungen 4355
schmer@@ 4356
sende 4357
springen 4358
steine 4359
straßen@@ 4360
tom@@ 4361
traditionellen 4362
unabhängig 4363
verbrachte 4364
verfahren 4365
verg@@ 4366
visi@@ 4367
wirtschaftliche 4368
aku@@ 4369
angesehen 4370
baute 4371
bedeuten@@ 4372
bereichen 4373
berühr@@ 4374
bit@@ 4375
blatt 4376
bs@@ 4377
buchstab@@ 4378
diert 4379
entstanden 4380
fossi@@ 4381
gesp@@ 4382
human@@ 4383
kindheit 4384
lab@@ 4385
mach 4386
mark 4387
mexiko 4388
mikrosk@@ 4389
oli@@ 4390
programme 4391
rot 4392
schmu@@ 4393
schrän@@ 4394
spa@@ 4395
südafri@@ 4396
universi@@ 4397
veränder@@ 4398
zerstören 4399
200@@ 4400
5.000 4401
600 4402
bemü@@ 4403
beschei@@ 4404
bevölker@@ 4405
definition 4406
elektrizität 4407
ens@@ 4408
erlebt 4409
euer 4410
facebook 4411
feststellen 4412
ffe@@ 4413
gross@@ 4414
halbe 4415
hängen 4416
höre 4417
konkur@@ 4418
krä@@ 4419
level 4420
optimi@@ 4421
philosoph@@ 4422
schau 4423
schiff 4424
sex@@ 4425
spielte 4426
stech@@ 4427
tausenden 4428
tern@@ 4429
teuer 4430
tradition@@ 4431
ves 4432
wellen 4433
überzeu@@ 4434
afrikanischen 4435
app@@ 4436
aufen 4437
beantworten 4438
beschäftigen 4439
besuchen 4440
drück@@ 4441
erter 4442
frequ@@ 4443
gegend 4444
hilfs@@ 4445
hinsicht 4446
hörten 4447
islam@@ 4448
leistungs@@ 4449
ling 4450
lossen@@ 4451
mittler@@ 4452
müll 4453
ny 4454
our@@ 4455
präsentation 4456
präsi@@ 4457
radik@@ 4458
satelli@@ 4459
skelet@@ 4460
stil 4461
studieren 4462
temp@@ 4463
toile@@ 4464
tzu@@ 4465
untersucht 4466
vermitteln 4467
viertel 4468
westlichen 4469
wissenschaften 4470
zerstört 4471
zuge@@ 4472
anhand 4473
basier@@ 4474
beein@@ 4475
beobachtet 4476
beschlossen 4477
college 4478
do 4479
dunkel@@ 4480
ermu@@ 4481
gefallen 4482
gemeinden 4483
gender 4484
gleichheit 4485
gö@@ 4486
handy 4487
hinten 4488
jähri@@ 4489
kaffee 4490
löcher 4491
mern 4492
michael 4493
mäßig 4494
müsste 4495
ologische 4496
papi@@ 4497
phase 4498
quasi 4499
rand 4500
skla@@ 4501
tens 4502
times 4503
wachst@@ 4504
website 4505
weit@@ 4506
zir@@ 4507
ärm@@ 4508
äs@@ 4509
al-@@ 4510
arm@@ 4511
atmen 4512
aufzubauen 4513
brücke 4514
bä@@ 4515
charakter 4516
di 4517
erfindung 4518
explo@@ 4519
gebeten 4520
glo@@ 4521
hlte 4522
hnung 4523
jedenfalls 4524
jähr@@ 4525
kehrt 4526
konfron@@ 4527
lehren 4528
lektion 4529
lässi@@ 4530
molekul@@ 4531
motivi@@ 4532
norden 4533
null 4534
religi@@ 4535
schme@@ 4536
sil@@ 4537
teure 4538
theater 4539
vergröß@@ 4540
verkehr@@ 4541
vorstellungen 4542
wahn@@ 4543
welchem 4544
wesentlich 4545
winden 4546
ws 4547
wähl@@ 4548
zeitung 4549
zweck 4550
atten 4551
chemikalien 4552
dienst 4553
dunkl@@ 4554
entdeckte 4555
entworfen 4556
eres 4557
erforsch@@ 4558
exi@@ 4559
existi@@ 4560
faktoren 4561
freiwilli@@ 4562
genom@@ 4563
geschü@@ 4564
geändert 4565
il 4566
kerl 4567
komplex 4568
konflikt 4569
ktes 4570
langer 4571
lasse 4572
mee 4573
mili@@ 4574
mul@@ 4575
mund 4576
pa 4577
pf 4578
pfle@@ 4579
potential 4580
schließ@@ 4581
seln 4582
statistiken 4583
strom@@ 4584
thi@@ 4585
tigte 4586
täu@@ 4587
use 4588
verlust 4589
werken 4590
wirklichen 4591
ziel@@ 4592
zivilisation 4593
bakteri@@ 4594
bedürfnisse 4595
berichten 4596
beweisen 4597
biert 4598
erwähnt 4599
extre@@ 4600
folie 4601
gesundheitswesen 4602
gramm 4603
junger 4604
klo@@ 4605
kreieren 4606
lediglich 4607
lt 4608
lustig 4609
menschlicher 4610
mitglieder 4611
nar@@ 4612
nutzung 4613
online-@@ 4614
presse 4615
pul@@ 4616
saal 4617
selten 4618
show 4619
sing@@ 4620
sser 4621
stun@@ 4622
stur@@ 4623
stärke 4624
tot@@ 4625
verab@@ 4626
verkehr 4627
woll@@ 4628
zit@@ 4629
zte 4630
zusätz@@ 4631
ökon@@ 4632
99 4633
ade@@ 4634
band@@ 4635
bekannte 4636
blieb 4637
brie@@ 4638
dri@@ 4639
einstein 4640
emis@@ 4641
entsch@@ 4642
erlaub@@ 4643
erstellt 4644
fahrt 4645
franzö@@ 4646
gelen@@ 4647
genie@@ 4648
global 4649
gos 4650
hafte 4651
james 4652
medikament 4653
momente 4654
nern 4655
oll@@ 4656
poten@@ 4657
repar@@ 4658
rote 4659
singen 4660
skulp@@ 4661
stab@@ 4662
stellungen 4663
stärker 4664
teilneh@@ 4665
tot 4666
viert 4667
von@@ 4668
wahrschein@@ 4669
2008 4670
achse 4671
aner 4672
aspe@@ 4673
aufbau 4674
bein 4675
beinahe 4676
beispielsweise 4677
blauen 4678
cor@@ 4679
dameri@@ 4680
dunkle 4681
effektiv 4682
entwicklungsländern 4683
fabrik 4684
furcht@@ 4685
g-@@ 4686
gemäl@@ 4687
gewe@@ 4688
glas@@ 4689
grünen 4690
innere 4691
jon@@ 4692
kühl@@ 4693
medien@@ 4694
motor 4695
nahe@@ 4696
palä@@ 4697
schlafen 4698
schwierigkeiten 4699
sig@@ 4700
sonder@@ 4701
sprü@@ 4702
standar@@ 4703
teles@@ 4704
thomas 4705
ue 4706
unglaublichen 4707
unterrichten 4708
verbessert 4709
verdam@@ 4710
verknü@@ 4711
verteilt 4712
wind@@ 4713
wirkliche 4714
zugänglich 4715
abhängi@@ 4716
ack 4717
diagramm 4718
digit@@ 4719
einrichtungen 4720
erkannt 4721
gefällt 4722
geschlagen 4723
gesellschaft@@ 4724
herren 4725
infe@@ 4726
inhalt 4727
internationalen 4728
jan@@ 4729
komple@@ 4730
llig 4731
meer@@ 4732
mitarbeiter 4733
molekül 4734
müssten 4735
ologischen 4736
person@@ 4737
solange 4738
spe@@ 4739
spen@@ 4740
stopp@@ 4741
tag@@ 4742
toten 4743
übrig 4744
anteil 4745
aufregend 4746
büchern 4747
chtern 4748
deln 4749
dies@@ 4750
diskussion 4751
durchschnittliche 4752
falten 4753
geburt@@ 4754
genü@@ 4755
geregt 4756
gesichter 4757
grosse 4758
gur@@ 4759
hon@@ 4760
igkeiten 4761
ilfe 4762
insbesondere 4763
ji@@ 4764
kampagne 4765
kap@@ 4766
kapital 4767
katastrop@@ 4768
kochen 4769
liefer@@ 4770
maßstab 4771
nützlich 4772
parti@@ 4773
schluss@@ 4774
schwarzen 4775
seltsam 4776
situationen 4777
symbo@@ 4778
tü@@ 4779
webseite 4780
willst 4781
wärmung 4782
zielen 4783
ält 4784
altet 4785
artige 4786
asse 4787
autor 4788
decken 4789
deutsch@@ 4790
dna-@@ 4791
ed@@ 4792
eindeu@@ 4793
einiges 4794
ember 4795
erken@@ 4796
fabri@@ 4797
george 4798
grüne 4799
heißen 4800
hie@@ 4801
jun@@ 4802
kapu@@ 4803
kompliziert 4804
kungen 4805
linge 4806
lokalen 4807
manipu@@ 4808
nicht@@ 4809
pres@@ 4810
prinzipien 4811
riesen@@ 4812
schick@@ 4813
schöpf@@ 4814
serie 4815
station 4816
tasche 4817
teams 4818
tlichen 4819
unfall 4820
unt 4821
vis@@ 4822
vorbei@@ 4823
vorge@@ 4824
vorne 4825
wüste 4826
äußerst 4827
21. 4828
af@@ 4829
arbeitsp@@ 4830
ausmaß 4831
beweis 4832
beziehen 4833
brach 4834
dan 4835
empfin@@ 4836
entstand 4837
erwachsenen 4838
freundin 4839
gegründet 4840
gelebt 4841
geschma@@ 4842
gesund 4843
gewohn@@ 4844
glü@@ 4845
grau@@ 4846
großmutter 4847
hallo 4848
heli@@ 4849
häusern 4850
inieren 4851
liefern 4852
mie@@ 4853
moralische 4854
motor@@ 4855
mr@@ 4856
nachts 4857
nom@@ 4858
pump@@ 4859
rett@@ 4860
risiken 4861
schaue 4862
spiegel@@ 4863
strahlung 4864
sym@@ 4865
telefon@@ 4866
tert 4867
tnisse 4868
transpor@@ 4869
verpflich@@ 4870
verring@@ 4871
versteht 4872
verwandelt 4873
wettbewerb 4874
zitat 4875
überqu@@ 4876
anpas@@ 4877
ast 4878
australien 4879
außen 4880
beinhaltet 4881
breite 4882
chemie 4883
digitale 4884
figu@@ 4885
gab@@ 4886
gegenwart 4887
geräusche 4888
gras 4889
holfen 4890
hyper@@ 4891
jewei@@ 4892
konz@@ 4893
kran@@ 4894
metapher 4895
minister@@ 4896
pati@@ 4897
phil@@ 4898
prin@@ 4899
regu@@ 4900
rennen 4901
sektor 4902
sinni@@ 4903
stimmung 4904
stärken 4905
text 4906
verblüff@@ 4907
verbrei@@ 4908
waff@@ 4909
weiße 4910
zahn@@ 4911
0 4912
1.@@ 4913
anlage 4914
beschloss 4915
bogen 4916
dient 4917
enorme 4918
erkenn@@ 4919
erwachsene 4920
ewi@@ 4921
faszin@@ 4922
frank@@ 4923
geber 4924
gering@@ 4925
handlungen 4926
heran@@ 4927
herstellung 4928
hnte 4929
ille 4930
intellektu@@ 4931
national@@ 4932
natür@@ 4933
nive@@ 4934
ost@@ 4935
ox@@ 4936
pt 4937
reser@@ 4938
schimpansen 4939
schlägt 4940
schreibt 4941
selbe 4942
signal 4943
sitz 4944
sowas 4945
stehe 4946
sätze 4947
vertraut 4948
vog@@ 4949
witz 4950
zusammenzu@@ 4951
afrikas 4952
akzeptieren 4953
allgemeinen 4954
analyse 4955
anstelle 4956
ausgeben 4957
bemerken 4958
cam@@ 4959
darstellen 4960
diszi@@ 4961
echtz@@ 4962
element 4963
enz@@ 4964
geheimnis 4965
hai 4966
hierher 4967
kirche 4968
koll@@ 4969
kombination 4970
korre@@ 4971
kriege 4972
kro@@ 4973
licherweise 4974
liefert 4975
präsentieren 4976
reiche 4977
republi@@ 4978
resultat 4979
rollen 4980
tate 4981
versu@@ 4982
volk 4983
vorzustellen 4984
wieviel 4985
wofür 4986
zeigten 4987
üben 4988
ala 4989
bestand@@ 4990
bezüglich 4991
einfaches 4992
fassung 4993
fehlen 4994
gemeinsame 4995
gif@@ 4996
graph@@ 4997
großartigen 4998
hre 4999
kanada 5000
katastrophe 5001
malaria 5002
neh@@ 5003
nähr@@ 5004
pazi@@ 5005
physiker 5006
proble@@ 5007
profession@@ 5008
rin@@ 5009
schalt@@ 5010
schritt@@ 5011
selbstverständlich 5012
sele@@ 5013
sequenz 5014
setzten 5015
solcher 5016
stif@@ 5017
stro@@ 5018
tradition 5019
unglaub@@ 5020
untersuchung 5021
versagen 5022
verteilung 5023
veränderte 5024
voraus 5025
völ@@ 5026
willen 5027
überlegen 5028
anwendung 5029
belast@@ 5030
bene 5031
bestä@@ 5032
boo@@ 5033
chemi@@ 5034
chtete 5035
damen 5036
den-@@ 5037
ebenen 5038
entfernen 5039
ertes 5040
füllen 5041
fün@@ 5042
gebieten 5043
geschäf@@ 5044
gün@@ 5045
inseln 5046
internationale 5047
kas 5048
kriegs@@ 5049
landen 5050
liebte 5051
menschliches 5052
pfund 5053
probieren 5054
roh@@ 5055
spun@@ 5056
stammzellen 5057
telef@@ 5058
unterhaltung 5059
verbrechen 5060
vorhanden 5061
vorhersagen 5062
wat@@ 5063
wikipedia 5064
zität 5065
zusammenge@@ 5066
änge 5067
1.000 5068
absicht 5069
agt 5070
aktivitäten 5071
atlan@@ 5072
aturen 5073
ausstellung 5074
bedenken 5075
bewus@@ 5076
chungen 5077
diesel@@ 5078
ero@@ 5079
förmi@@ 5080
gemeinschaften 5081
gerei@@ 5082
grundlage 5083
heirat@@ 5084
komment@@ 5085
legte 5086
leiter 5087
lächeln 5088
meist 5089
mitta@@ 5090
momentan 5091
mutter@@ 5092
proben 5093
schnei@@ 5094
schönes 5095
sensor@@ 5096
speziellen 5097
trennt 5098
tun@@ 5099
unterstützt 5100
vermeiden 5101
versor@@ 5102
vir@@ 5103
wovon 5104
zwischen@@ 5105
195@@ 5106
alien 5107
annahme 5108
chteten 5109
darunter 5110
depres@@ 5111
erweitern 5112
felder 5113
grafik 5114
halb@@ 5115
här@@ 5116
jahrzehnt 5117
john@@ 5118
langfri@@ 5119
lem 5120
lige 5121
macher 5122
mlich 5123
nigeria 5124
phen 5125
phän@@ 5126
prote@@ 5127
pä@@ 5128
schnitt@@ 5129
schrecklich 5130
steve 5131
stück@@ 5132
sungen 5133
tom 5134
ty@@ 5135
umfeld 5136
usch 5137
verbreitung 5138
verwir@@ 5139
weis 5140
übernehmen 5141
75 5142
eur@@ 5143
fran@@ 5144
holz@@ 5145
inner@@ 5146
ment 5147
proto@@ 5148
schauten 5149
schriften 5150
sprecher 5151
taucht 5152
verne@@ 5153
verti@@ 5154
weih@@ 5155
zep@@ 5156
begei@@ 5157
beobach@@ 5158
darwin 5159
git@@ 5160
jam@@ 5161
richt@@ 5162
sa 5163
seits 5164
tats@@ 5165
terror@@ 5166
amerikan@@ 5167
chron@@ 5168
extra@@ 5169
ktoren 5170
nasa 5171
on-@@ 5172
philosop@@ 5173
schwa@@ 5174
uss@@ 5175
uten 5176
ve@@ 5177
verantwor@@ 5178
willi@@ 5179
16@@ 5180
2,@@ 5181
2007 5182
ameras 5183
chst 5184
danken 5185
francisco 5186
geno@@ 5187
heim 5188
jer@@ 5189
mali@@ 5190
mand@@ 5191
nett 5192
pol@@ 5193
risi@@ 5194
robert 5195
rou@@ 5196
stabili@@ 5197
status 5198
studio 5199
trum 5200
western 5201
wick@@ 5202
archi@@ 5203
beg@@ 5204
beginn@@ 5205
c. 5206
con@@ 5207
defin@@ 5208
dium 5209
enga@@ 5210
entwick@@ 5211
exper@@ 5212
harvard 5213
ings 5214
massi@@ 5215
new@@ 5216
ney 5217
restaurant 5218
tent@@ 5219
tig@@ 5220
zivili@@ 5221
zufä@@ 5222
assen 5223
die@@ 5224
evolution@@ 5225
gens 5226
haup@@ 5227
inspiration 5228
jahrhunder@@ 5229
melt 5230
ore 5231
rad@@ 5232
scan@@ 5233
spon@@ 5234
sst 5235
theore@@ 5236
world 5237
aden 5238
allen@@ 5239
ar-@@ 5240
ard 5241
cha@@ 5242
fundament@@ 5243
gendes 5244
golf 5245
iel 5246
indu@@ 5247
instrument 5248
ise 5249
nas@@ 5250
od@@ 5251
ph 5252
rob@@ 5253
sal 5254
stamm@@ 5255
stem 5256
stop@@ 5257
tumor 5258
ultra@@ 5259
unterschei@@ 5260
v-@@ 5261
ware 5262
astero@@ 5263
bert 5264
center 5265
gesund@@ 5266
infor@@ 5267
kümm@@ 5268
laptop 5269
mmt 5270
mobili@@ 5271
moral 5272
net@@ 5273
ordin@@ 5274
s. 5275
star 5276
statisti@@ 5277
ther 5278
tivi@@ 5279
ute 5280
va 5281
verstän@@ 5282
yor@@ 5283
zz@@ 5284
are@@ 5285
benu@@ 5286
denten 5287
ek@@ 5288
esses 5289
flexi@@ 5290
gre@@ 5291
lossen 5292
og@@ 5293
ors 5294
priv@@ 5295
probe 5296
see@@ 5297
ssi@@ 5298
taus@@ 5299
van@@ 5300
zel@@ 5301
zent@@ 5302
zusä@@ 5303
2010 5304
alternative 5305
block@@ 5306
budd@@ 5307
ce@@ 5308
enheit 5309
ham 5310
islam 5311
maga@@ 5312
spi@@ 5313
still@@ 5314
w. 5315
wid@@ 5316
14@@ 5317
2005 5318
age 5319
ami 5320
chaos 5321
designs 5322
fang 5323
gangen 5324
gefäng@@ 5325
hom@@ 5326
ks@@ 5327
logi@@ 5328
met 5329
meta@@ 5330
offi@@ 5331
tedx@@ 5332
urspr@@ 5333
vermei@@ 5334
zwe@@ 5335
beding@@ 5336
co 5337
derer 5338
gat@@ 5339
grü@@ 5340
iso@@ 5341
pakistan 5342
passi@@ 5343
sim@@ 5344
source 5345
spür@@ 5346
trick 5347
troffen 5348
25@@ 5349
bewusst@@ 5350
dd@@ 5351
essi@@ 5352
grafi@@ 5353
horizon@@ 5354
hunger 5355
impul@@ 5356
konta@@ 5357
nachzu@@ 5358
p-@@ 5359
phili@@ 5360
ration 5361
schre@@ 5362
twitter 5363
university 5364
van 5365
vin@@ 5366
amp 5367
ana 5368
boston 5369
brief 5370
dür@@ 5371
fur@@ 5372
impro@@ 5373
interessi@@ 5374
les 5375
liber@@ 5376
nie@@ 5377
präsen@@ 5378
rec@@ 5379
schwarz@@ 5380
spru@@ 5381
stock@@ 5382
strategi@@ 5383
student 5384
ty 5385
well@@ 5386
x-@@ 5387
youtube 5388
00 5389
00@@ 5390
doll@@ 5391
dop@@ 5392
ford 5393
ge-@@ 5394
gor@@ 5395
haiti 5396
hiv-@@ 5397
nö@@ 5398
rhyth@@ 5399
schir@@ 5400
stern@@ 5401
stration 5402
sum 5403
tis 5404
turen 5405
öffent@@ 5406
ak 5407
aro@@ 5408
bür@@ 5409
compu@@ 5410
cyber@@ 5411
depression 5412
flei@@ 5413
half 5414
mail 5415
mama 5416
maß 5417
ski@@ 5418
thes@@ 5419
un 5420
winter 5421
&amp; 5422
astro@@ 5423
bank@@ 5424
bart 5425
bes 5426
blind 5427
diplo@@ 5428
ela 5429
est@@ 5430
hig@@ 5431
high@@ 5432
hlen@@ 5433
interpre@@ 5434
isra@@ 5435
kation 5436
privi@@ 5437
sach@@ 5438
spiritu@@ 5439
stin@@ 5440
tar@@ 5441
val@@ 5442
ager 5443
air@@ 5444
alt@@ 5445
bieren 5446
ble 5447
blog@@ 5448
dacht 5449
ends 5450
ics 5451
mur@@ 5452
partner@@ 5453
prototyp@@ 5454
ray 5455
samkeit 5456
sters 5457
street 5458
training 5459
transplan@@ 5460
union 5461
verfüg@@ 5462
yn@@ 5463
.com 5464
enter 5465
geogra@@ 5466
high 5467
hot@@ 5468
illu@@ 5469
island 5470
loss 5471
neur@@ 5472
sequen@@ 5473
stimu@@ 5474
stock 5475
19 5476
absol@@ 5477
amei@@ 5478
ars 5479
ates 5480
benö@@ 5481
by@@ 5482
cent 5483
cho@@ 5484
ffer 5485
fron@@ 5486
glau@@ 5487
juli@@ 5488
live 5489
medium 5490
obama 5491
paris 5492
phi@@ 5493
ration@@ 5494
unterstü@@ 5495
2009 5496
anti-@@ 5497
apo@@ 5498
archite@@ 5499
chicago 5500
echn@@ 5501
exponenti@@ 5502
instin@@ 5503
intui@@ 5504
mani@@ 5505
masch@@ 5506
mitt@@ 5507
open 5508
orche@@ 5509
problems 5510
raft 5511
rän@@ 5512
schlüs@@ 5513
simu@@ 5514
soft@@ 5515
toler@@ 5516
vel@@ 5517
21 5518
box 5519
budget 5520
detail 5521
dh 5522
drin@@ 5523
erwachsen@@ 5524
gras@@ 5525
ko 5526
medikam@@ 5527
nat@@ 5528
ome@@ 5529
population 5530
still 5531
were 5532
atur@@ 5533
b. 5534
chromo@@ 5535
cir@@ 5536
ec@@ 5537
edi@@ 5538
jac@@ 5539
my 5540
nien 5541
peter 5542
que@@ 5543
sport 5544
symptom@@ 5545
west 5546
zö@@ 5547
überra@@ 5548
anth@@ 5549
astron@@ 5550
ba 5551
cra@@ 5552
cri@@ 5553
cy@@ 5554
fair 5555
gehir@@ 5556
motivation 5557
olymp@@ 5558
prof@@ 5559
rock@@ 5560
shu@@ 5561
tal 5562
urban@@ 5563
22 5564
adam 5565
alp@@ 5566
aufmerk@@ 5567
bla@@ 5568
blog 5569
d.@@ 5570
dete@@ 5571
dul@@ 5572
ep@@ 5573
ession 5574
gebur@@ 5575
gigan@@ 5576
herauszu@@ 5577
hotel 5578
hum@@ 5579
in-@@ 5580
korea 5581
krat@@ 5582
mails 5583
nee 5584
pin@@ 5585
pit@@ 5586
poster 5587
protein 5588
robo@@ 5589
substan@@ 5590
symbol 5591
tele@@ 5592
tricks 5593
watt 5594
we 5595
ya 5596
ania 5597
appar@@ 5598
audi@@ 5599
ef@@ 5600
ernähr@@ 5601
fau@@ 5602
geome@@ 5603
häufi@@ 5604
ki 5605
lot@@ 5606
schön@@ 5607
spu@@ 5608
strand 5609
tee 5610
uganda 5611
vie@@ 5612
yn 5613
zon@@ 5614
2004 5615
27 5616
abhän@@ 5617
angeles 5618
autis@@ 5619
cel@@ 5620
cool@@ 5621
diabetes 5622
domin@@ 5623
don 5624
hat@@ 5625
implan@@ 5626
inse@@ 5627
mäd@@ 5628
nik 5629
rab@@ 5630
resi@@ 5631
rest@@ 5632
teenager 5633
ter-@@ 5634
texas 5635
vul@@ 5636
wettbewer@@ 5637
zusam@@ 5638
2006 5639
23 5640
architek@@ 5641
argument 5642
ats 5643
bay 5644
cal@@ 5645
dere 5646
enzy@@ 5647
gelö@@ 5648
general 5649
gold@@ 5650
mom@@ 5651
more 5652
myster@@ 5653
nel@@ 5654
ota 5655
pollen 5656
post@@ 5657
pyrami@@ 5658
repli@@ 5659
shi@@ 5660
temper@@ 5661
viet@@ 5662
zone 5663
95 5664
bf 5665
blogs 5666
dens 5667
derek 5668
intelli@@ 5669
lear@@ 5670
part@@ 5671
party 5672
slo@@ 5673
sms 5674
ti 5675
2001 5676
65 5677
ameri@@ 5678
anima@@ 5679
anony@@ 5680
biot@@ 5681
bo 5682
can@@ 5683
cle@@ 5684
d. 5685
dialo@@ 5686
diver@@ 5687
genan@@ 5688
gress 5689
grupp@@ 5690
h-@@ 5691
hang 5692
iphone 5693
jä@@ 5694
legi@@ 5695
nahr@@ 5696
nes@@ 5697
näch@@ 5698
para@@ 5699
shir@@ 5700
st-@@ 5701
start 5702
sus@@ 5703
therap@@ 5704
a. 5705
ad 5706
attra@@ 5707
authenti@@ 5708
bi 5709
blich 5710
block 5711
chip 5712
chr@@ 5713
chri@@ 5714
einfa@@ 5715
elegan@@ 5716
janu@@ 5717
lieder 5718
lon@@ 5719
mol@@ 5720
ograph@@ 5721
pau@@ 5722
qui@@ 5723
repor@@ 5724
sahar@@ 5725
spo@@ 5726
stati@@ 5727
tran@@ 5728
tus 5729
verhäl@@ 5730
vil@@ 5731
wesent@@ 5732
zau@@ 5733
2003 5734
250 5735
ce-@@ 5736
dent@@ 5737
keiten 5738
lan 5739
origin@@ 5740
pag@@ 5741
polio 5742
poly@@ 5743
pus 5744
rem 5745
sw 5746
tumor@@ 5747
wa 5748
2.@@ 5749
ast@@ 5750
athei@@ 5751
geg@@ 5752
gold 5753
han 5754
hell@@ 5755
homo@@ 5756
ht@@ 5757
humor 5758
invol@@ 5759
möglich@@ 5760
ol 5761
oxford 5762
pharma@@ 5763
plant 5764
radio 5765
syl@@ 5766
syndro@@ 5767
tenden@@ 5768
trend 5769
twi@@ 5770
vo 5771
wirkungen 5772
194@@ 5773
32 5774
ai 5775
ale@@ 5776
alterna@@ 5777
ance 5778
assi@@ 5779
babies 5780
barri@@ 5781
brand@@ 5782
dnis 5783
fs@@ 5784
hm@@ 5785
martin 5786
ologi@@ 5787
rand@@ 5788
se-@@ 5789
skep@@ 5790
smo@@ 5791
soll@@ 5792
spie@@ 5793
streng@@ 5794
terrori@@ 5795
unterschied@@ 5796
zahlt 5797
ams 5798
bac@@ 5799
cy 5800
forma@@ 5801
frank 5802
fs 5803
ghana 5804
gravi@@ 5805
harmon@@ 5806
ii 5807
kb 5808
kräf@@ 5809
marketing 5810
real 5811
restaurants 5812
richti@@ 5813
same 5814
send 5815
umgeb@@ 5816
valley 5817
é 5818
ald 5819
alex@@ 5820
anderth@@ 5821
bol@@ 5822
das@@ 5823
fot@@ 5824
gam@@ 5825
gand@@ 5826
kit@@ 5827
microsoft 5828
nets 5829
nigeri@@ 5830
paradig@@ 5831
pause 5832
präsent@@ 5833
relevant 5834
ritu@@ 5835
tsam 5836
50@@ 5837
alli@@ 5838
anal@@ 5839
anthropo@@ 5840
apple 5841
astronom@@ 5842
ate@@ 5843
cket 5844
clu@@ 5845
ear@@ 5846
glam@@ 5847
initiative 5848
intuition 5849
leg 5850
lie 5851
nai@@ 5852
optimis@@ 5853
pher@@ 5854
phosp@@ 5855
plus 5856
pos@@ 5857
reali@@ 5858
rela@@ 5859
revolution@@ 5860
sensi@@ 5861
stol@@ 5862
tanz@@ 5863
trends 5864
tu 5865
700 5866
andre@@ 5867
dest@@ 5868
ents 5869
gressi@@ 5870
hing@@ 5871
howard 5872
ill 5873
institute 5874
konzent@@ 5875
sauer@@ 5876
sli@@ 5877
smar@@ 5878
stress 5879
super 5880
talk 5881
ut 5882
… 5883
120 5884
26 5885
800 5886
angel@@ 5887
bia 5888
coo@@ 5889
element@@ 5890
erfahr@@ 5891
experiment@@ 5892
geor@@ 5893
gy@@ 5894
itali@@ 5895
jo 5896
le-@@ 5897
ore@@ 5898
origami 5899
patri@@ 5900
pon@@ 5901
portra@@ 5902
rio 5903
rus 5904
schirm 5905
sis 5906
sour@@ 5907
standard 5908
tem@@ 5909
tony 5910
é@@ 5911
13@@ 5912
att@@ 5913
chol@@ 5914
cin@@ 5915
differ@@ 5916
einflus@@ 5917
feedback 5918
gran@@ 5919
grundsä@@ 5920
illusion 5921
initi@@ 5922
inv@@ 5923
kni@@ 5924
llan@@ 5925
lux@@ 5926
m-@@ 5927
med 5928
molekü@@ 5929
ong 5930
parado@@ 5931
psycho@@ 5932
right 5933
stanford 5934
thei@@ 5935
tradi@@ 5936
verursa@@ 5937
ville 5938
virg@@ 5939
way 5940
abra@@ 5941
cambridge 5942
ders 5943
deta@@ 5944
diskus@@ 5945
ergeb@@ 5946
expedi@@ 5947
frag@@ 5948
halten@@ 5949
held 5950
ili@@ 5951
kilome@@ 5952
kör@@ 5953
laptops 5954
last 5955
listen 5956
manhattan 5957
organ 5958
primi@@ 5959
prop@@ 5960
run@@ 5961
saturn 5962
scot@@ 5963
stit@@ 5964
tech 5965
tim 5966
wild@@ 5967
40@@ 5968
antibio@@ 5969
bronx 5970
caf@@ 5971
eben@@ 5972
eric 5973
felt 5974
florida 5975
gers 5976
international 5977
kürz@@ 5978
minim@@ 5979
mr. 5980
out@@ 5981
pho@@ 5982
promis@@ 5983
sir 5984
song 5985
zwi@@ 5986
ames 5987
bai 5988
balance 5989
brown 5990
bush 5991
de-@@ 5992
farm 5993
geräu@@ 5994
hallu@@ 5995
institution 5996
kev@@ 5997
lee 5998
liebl@@ 5999
mich@@ 6000
olo@@ 6001
private 6002
science 6003
tale 6004
tech@@ 6005
tober 6006
yl@@ 6007
‹ 6008
› 6009
adi@@ 6010
alle@@ 6011
ary 6012
austr@@ 6013
beha@@ 6014
brow@@ 6015
by 6016
cortex 6017
coun@@ 6018
dile@@ 6019
einfl@@ 6020
explosion 6021
front 6022
homo 6023
hydro@@ 6024
ic 6025
ings@@ 6026
insu@@ 6027
jenigen 6028
jes@@ 6029
journalist 6030
keit 6031
mammo@@ 6032
mo 6033
ones 6034
simulation 6035
sop@@ 6036
stru@@ 6037
time 6038
tou@@ 6039
val 6040
28 6041
alzheimer 6042
analog@@ 6043
automo@@ 6044
dimension 6045
etc 6046
finger@@ 6047
for 6048
gh 6049
grab@@ 6050
hol 6051
ipo@@ 6052
kehr 6053
konfer@@ 6054
non@@ 6055
post 6056
ri 6057
ring 6058
seen 6059
sey 6060
smith 6061
strahl@@ 6062
tour 6063
tsun@@ 6064
venti@@ 6065
24@@ 6066
ander 6067
cas@@ 6068
cin 6069
ener@@ 6070
febru@@ 6071
gan 6072
gates 6073
inten@@ 6074
interpretation 6075
jim 6076
joe 6077
kins 6078
labor@@ 6079
leon@@ 6080
ness 6081
option 6082
oxyto@@ 6083
pie@@ 6084
spre@@ 6085
standards 6086
steven 6087
then 6088
une 6089
vent@@ 6090
via 6091
zept 6092
.. 6093
ardo 6094
banglades@@ 6095
brian 6096
cap@@ 6097
erkan@@ 6098
ersta@@ 6099
fundam@@ 6100
ga 6101
gore 6102
inst@@ 6103
intelligent 6104
kind@@ 6105
kir@@ 6106
lincol@@ 6107
management 6108
matri@@ 6109
mechanis@@ 6110
media 6111
mode 6112
open-@@ 6113
psychop@@ 6114
squ@@ 6115
sth@@ 6116
taliban 6117
transi@@ 6118
tötet 6119
was@@ 6120
well 6121
yeah 6122
1960 6123
2011 6124
29 6125
85 6126
board 6127
bob 6128
clin@@ 6129
connec@@ 6130
cre@@ 6131
entrop@@ 6132
extra 6133
fine 6134
had 6135
hall 6136
hard@@ 6137
ies 6138
lea@@ 6139
mmer 6140
nel 6141
nest 6142
quanti@@ 6143
rb 6144
subje@@ 6145
tic@@ 6146
tional 6147
wart 6148
yle 6149
yo 6150
zero 6151
zusagen 6152
á@@ 6153
absor@@ 6154
an-@@ 6155
apri@@ 6156
atten@@ 6157
beten 6158
bizar@@ 6159
burgh 6160
down@@ 6161
eline 6162
garage 6163
henry 6164
inier@@ 6165
its 6166
jack 6167
miner@@ 6168
negative 6169
one@@ 6170
ot 6171
photo@@ 6172
planet@@ 6173
prob@@ 6174
rational 6175
refer@@ 6176
sation 6177
service 6178
shang@@ 6179
spor@@ 6180
spra@@ 6181
stent 6182
sun@@ 6183
talks 6184
technologi@@ 6185
up 6186
use@@ 6187
verbin@@ 6188
vereinig@@ 6189
wirt@@ 6190
übri@@ 6191
193@@ 6192
adop@@ 6193
bby 6194
car 6195
chtigkeit 6196
cock@@ 6197
digital 6198
fair@@ 6199
fan 6200
glamour 6201
goog@@ 6202
gründet 6203
hur@@ 6204
invasi@@ 6205
ir 6206
kore@@ 6207
ll 6208
mam@@ 6209
mexi@@ 6210
navi@@ 6211
talent 6212
transport 6213
umines@@ 6214
usi@@ 6215
abor@@ 6216
aug@@ 6217
bec@@ 6218
bell 6219
broo@@ 6220
business 6221
cs 6222
dam 6223
eil 6224
equ@@ 6225
event@@ 6226
haw@@ 6227
imp@@ 6228
ira@@ 6229
ktu@@ 6230
mem@@ 6231
ments 6232
mon 6233
oze@@ 6234
phen@@ 6235
quali@@ 6236
real@@ 6237
sho@@ 6238
sign@@ 6239
sin 6240
sor 6241
tex 6242
vers 6243
wett@@ 6244
zugän@@ 6245
ambi@@ 6246
diagra@@ 6247
dou@@ 6248
evol@@ 6249
filter 6250
fing@@ 6251
foundation 6252
interview 6253
lou@@ 6254
note 6255
popul@@ 6256
quar@@ 6257
recycl@@ 6258
schizophren@@ 6259
seri@@ 6260
signi@@ 6261
soli@@ 6262
strateg@@ 6263
tour@@ 6264
u.@@ 6265
verhalten@@ 6266
versi@@ 6267
wall 6268
zza 6269
° 6270
amin@@ 6271
appl@@ 6272
bili@@ 6273
cen@@ 6274
chil@@ 6275
computers 6276
dnung 6277
earth 6278
fit@@ 6279
gil@@ 6280
gli@@ 6281
high-@@ 6282
män@@ 6283
popu@@ 6284
propor@@ 6285
protot@@ 6286
pur@@ 6287
relev@@ 6288
rup@@ 6289
set 6290
sky 6291
stands 6292
sts 6293
tempor@@ 6294
tis@@ 6295
wahrneh@@ 6296
whit@@ 6297
woo@@ 6298
za 6299
cer@@ 6300
fiel@@ 6301
genome 6302
interven@@ 6303
inti@@ 6304
let 6305
mana@@ 6306
not 6307
personal 6308
power@@ 6309
rieb 6310
stian 6311
tra 6312
veter@@ 6313
wild 6314
wis@@ 6315
able 6316
afgh@@ 6317
agen@@ 6318
alls 6319
ay 6320
club 6321
ells 6322
expan@@ 6323
gä@@ 6324
ib@@ 6325
ket 6326
massive 6327
may@@ 6328
silicon 6329
sky@@ 6330
sla@@ 6331
sud@@ 6332
ve-@@ 6333
verständlich 6334
vorhan@@ 6335
zon 6336
öhn@@ 6337
angiogen@@ 6338
carto@@ 6339
cli@@ 6340
engagement 6341
era 6342
extreme 6343
gall@@ 6344
geneh@@ 6345
let@@ 6346
market@@ 6347
py@@ 6348
stab 6349
text@@ 6350
transformation 6351
w-@@ 6352
ward 6353
auton@@ 6354
bul@@ 6355
cr@@ 6356
dol@@ 6357
espe@@ 6358
face@@ 6359
hole 6360
line 6361
long 6362
modi@@ 6363
muse@@ 6364
original 6365
perspe@@ 6366
pir@@ 6367
poin@@ 6368
predi@@ 6369
profess@@ 6370
project 6371
rise 6372
sell 6373
state 6374
to-@@ 6375
vas@@ 6376
vege@@ 6377
ye@@ 6378
yer 6379
absolu@@ 6380
absolute 6381
agieren 6382
ay@@ 6383
bag@@ 6384
colle@@ 6385
eland 6386
ence 6387
forschen 6388
gift 6389
hop@@ 6390
kunde 6391
lands 6392
life 6393
ome 6394
retro@@ 6395
space 6396
tax@@ 6397
under@@ 6398
vag@@ 6399
vagina 6400
agenda 6401
air 6402
ath 6403
day 6404
diam@@ 6405
epi@@ 6406
gets 6407
hollywood 6408
intro@@ 6409
lab 6410
link 6411
milliar@@ 6412
omen@@ 6413
ory 6414
ots 6415
pig@@ 6416
profit 6417
q 6418
she@@ 6419
storben 6420
tv 6421
volu@@ 6422
3d 6423
abili@@ 6424
ange 6425
attac@@ 6426
dia 6427
dinosau@@ 6428
ermög@@ 6429
genheit 6430
geschwindi@@ 6431
graphi@@ 6432
green@@ 6433
ian 6434
impli@@ 6435
interface 6436
ison 6437
justi@@ 6438
lim@@ 6439
ops 6440
patent 6441
pilot 6442
sandwi@@ 6443
stim@@ 6444
story 6445
stud@@ 6446
teen@@ 6447
you 6448
zz 6449
aly@@ 6450
aster 6451
baseball 6452
bud@@ 6453
clip 6454
deli@@ 6455
eth 6456
fix@@ 6457
fund@@ 6458
geographic 6459
hes 6460
ih@@ 6461
integra@@ 6462
meeting 6463
migr@@ 6464
mix@@ 6465
moment@@ 6466
orbit 6467
pass 6468
plu@@ 6469
poe@@ 6470
publik@@ 6471
rät@@ 6472
sac@@ 6473
scan 6474
sci@@ 6475
south 6476
stan 6477
ston 6478
tons 6479
var@@ 6480
verse 6481
won@@ 6482
any@@ 6483
beeinflus@@ 6484
bits 6485
cur@@ 6486
fac@@ 6487
hing 6488
häus@@ 6489
interess@@ 6490
kers 6491
mine 6492
publi@@ 6493
ran 6494
sh 6495
stere@@ 6496
top 6497
u.s. 6498
wood 6499
+ 6500
ash 6501
bee@@ 6502
bet 6503
blue 6504
brilli@@ 6505
colum@@ 6506
cu@@ 6507
dollars 6508
farmer 6509
fir@@ 6510
internation@@ 6511
lik@@ 6512
mittl@@ 6513
model 6514
phot@@ 6515
plö@@ 6516
point 6517
ral 6518
relation 6519
rier 6520
sent@@ 6521
sle@@ 6522
sou@@ 6523
stert 6524
teili@@ 6525
town 6526
wh@@ 6527
win 6528
aum 6529
bad 6530
beispiel@@ 6531
cat@@ 6532
cham@@ 6533
food 6534
fusion 6535
goo@@ 6536
graph 6537
karri@@ 6538
l-@@ 6539
magazine 6540
mög@@ 6541
north 6542
old 6543
recy@@ 6544
rock 6545
ror 6546
sons 6547
sty@@ 6548
tors 6549
warm 6550
½ 6551
ands 6552
brand 6553
cla@@ 6554
emotional 6555
fab@@ 6556
favor@@ 6557
foot@@ 6558
gespro@@ 6559
grade 6560
health 6561
hell 6562
hindern 6563
ima@@ 6564
pad 6565
perman@@ 6566
pic@@ 6567
psychiat@@ 6568
quote 6569
research 6570
schimpan@@ 6571
simul@@ 6572
sun 6573
alo@@ 6574
art@@ 6575
back@@ 6576
base@@ 6577
bow@@ 6578
cloud 6579
community 6580
cul@@ 6581
ehen 6582
hmen@@ 6583
low 6584
materials 6585
mix 6586
news 6587
ods 6588
one-@@ 6589
orange 6590
phone 6591
reli@@ 6592
repu@@ 6593
side 6594
spir@@ 6595
spli@@ 6596
stone 6597
strat@@ 6598
ama 6599
american 6600
attle 6601
ause 6602
black@@ 6603
cop@@ 6604
fft 6605
fund 6606
gay 6607
gon@@ 6608
gps 6609
hero@@ 6610
inde@@ 6611
k. 6612
manu@@ 6613
modern 6614
ple@@ 6615
shar@@ 6616
tie 6617
tili@@ 6618
ulti@@ 6619
zeitig 6620
alia 6621
att 6622
autonom@@ 6623
beach 6624
broad@@ 6625
dit 6626
dom 6627
eri@@ 6628
erweise 6629
flow 6630
gebie@@ 6631
green 6632
herausforder@@ 6633
illegal 6634
innovative 6635
ire 6636
isol@@ 6637
kalifor@@ 6638
key@@ 6639
ky 6640
master 6641
paki@@ 6642
pool 6643
revol@@ 6644
ritual 6645
river 6646
square 6647
sug@@ 6648
swe@@ 6649
ution 6650
zar@@ 6651
adap@@ 6652
addi@@ 6653
arr@@ 6654
bene@@ 6655
cent@@ 6656
cl@@ 6657
dad 6658
engl@@ 6659
extrem@@ 6660
force 6661
ine@@ 6662
neuron 6663
no 6664
olly@@ 6665
simple 6666
social 6667
strong 6668
traff@@ 6669
ultima@@ 6670
wiki@@ 6671
² 6672
aufgab@@ 6673
ax@@ 6674
bang@@ 6675
britan@@ 6676
bron@@ 6677
child 6678
clever 6679
clo@@ 6680
cro@@ 6681
dio@@ 6682
east 6683
erzä@@ 6684
exist@@ 6685
ful@@ 6686
gebra@@ 6687
genu@@ 6688
hou@@ 6689
hren@@ 6690
ines 6691
onnen 6692
onto 6693
ony@@ 6694
ord 6695
our 6696
out 6697
phones 6698
psy@@ 6699
psychi@@ 6700
under 6701
upp@@ 6702
verän@@ 6703
women 6704
act 6705
bevölk@@ 6706
cell@@ 6707
cents 6708
ear 6709
ek 6710
ep 6711
grand 6712
kratie 6713
mathe@@ 6714
meetings 6715
ony 6716
ow@@ 6717
re-@@ 6718
stream 6719
swa@@ 6720
terr@@ 6721
them@@ 6722
thr@@ 6723
too 6724
verblü@@ 6725
verbra@@ 6726
-up 6727
ada 6728
alist 6729
analysis 6730
brilliant 6731
company 6732
crow@@ 6733
data 6734
dge 6735
engineering 6736
entde@@ 6737
house 6738
how 6739
ims 6740
inno@@ 6741
malari@@ 6742
mary 6743
metaph@@ 6744
micro@@ 6745
mobile 6746
part 6747
port 6748
puzz@@ 6749
scre@@ 6750
sent 6751
sequ@@ 6752
shop 6753
spin@@ 6754
stimul@@ 6755
taste 6756
versus 6757
wech@@ 6758
‟ 6759
) 6760
bit 6761
dir@@ 6762
fellow 6763
geschie@@ 6764
ground 6765
großbritan@@ 6766
hus@@ 6767
image 6768
invest@@ 6769
ish@@ 6770
lady 6771
migra@@ 6772
ming 6773
oly@@ 6774
ond 6775
ous@@ 6776
restau@@ 6777
than@@ 6778
ures 6779
valent 6780
= 6781
abo@@ 6782
atmosp@@ 6783
bedingt 6784
bezieh@@ 6785
billion 6786
busin@@ 6787
but 6788
cau@@ 6789
cky 6790
controll@@ 6791
dp 6792
eicht 6793
elimin@@ 6794
esti@@ 6795
fasz@@ 6796
flu 6797
ils 6798
ind 6799
ink 6800
ision 6801
jem@@ 6802
mas 6803
mers 6804
monit@@ 6805
mov@@ 6806
nst 6807
ollywood 6808
phan@@ 6809
plac@@ 6810
prize 6811
rain 6812
red 6813
ressour@@ 6814
schied 6815
schieden 6816
shows 6817
stant 6818
urs 6819
vic@@ 6820
vide@@ 6821
who 6822
wit@@ 6823
beh@@ 6824
blocks 6825
british 6826
can 6827
clay 6828
entfer@@ 6829
funden 6830
guar@@ 6831
hea@@ 6832
insi@@ 6833
key 6834
lap@@ 6835
lieb 6836
mental 6837
metho@@ 6838
prinzipi@@ 6839
ring@@ 6840
stars 6841
symp@@ 6842
wee@@ 6843
wichtig@@ 6844
work@@ 6845
ally 6846
appe@@ 6847
ards 6848
asse@@ 6849
bers 6850
big@@ 6851
cing 6852
com 6853
dab@@ 6854
fire@@ 6855
flori@@ 6856
geschw@@ 6857
gesell@@ 6858
glass 6859
gment 6860
gradu@@ 6861
haupt 6862
ingu@@ 6863
inspi@@ 6864
kalien 6865
laun@@ 6866
law 6867
led 6868
mou@@ 6869
opp@@ 6870
over@@ 6871
peace 6872
que 6873
respon@@ 6874
ross 6875
shel@@ 6876
trade 6877
ular 6878
wr@@ 6879
xt 6880
ächlich 6881
‚ 6882
bak@@ 6883
beinhal@@ 6884
bucks 6885
cal 6886
ces 6887
cover 6888
ction 6889
dimensional 6890
edu@@ 6891
elektri@@ 6892
ement 6893
emotion 6894
films 6895
hall@@ 6896
haupts@@ 6897
head@@ 6898
hospital 6899
infra@@ 6900
love 6901
main@@ 6902
mir@@ 6903
miss 6904
names 6905
nin@@ 6906
orig@@ 6907
play@@ 6908
power 6909
relative 6910
scrat@@ 6911
ske@@ 6912
sort 6913
stop 6914
straß@@ 6915
terri@@ 6916
thri@@ 6917
transition 6918
wars 6919
wide 6920
wus@@ 6921
ó@@ 6922
admini@@ 6923
angi@@ 6924
arts 6925
bibli@@ 6926
co-@@ 6927
ct 6928
dafri@@ 6929
divi@@ 6930
dow@@ 6931
ee@@ 6932
entation 6933
ethi@@ 6934
gent 6935
gue 6936
happy 6937
hri@@ 6938
input 6939
int 6940
kids 6941
meth@@ 6942
multi-@@ 6943
now 6944
num@@ 6945
oc@@ 6946
plans 6947
post-@@ 6948
rapi@@ 6949
simpl@@ 6950
society 6951
tail 6952
tent 6953
tic 6954
transforma@@ 6955
ury 6956
user 6957
zeital@@ 6958
abli@@ 6959
allo@@ 6960
aw@@ 6961
bess@@ 6962
black 6963
boy 6964
california 6965
cancer 6966
colli@@ 6967
contain@@ 6968
date 6969
diff@@ 6970
display 6971
fell 6972
fit 6973
för@@ 6974
get 6975
gla@@ 6976
great 6977
imple@@ 6978
intelle@@ 6979
ity 6980
künf@@ 6981
moun@@ 6982
night 6983
nose 6984
page 6985
put 6986
sharing 6987
shor@@ 6988
thy 6989
toi@@ 6990
tools 6991
windows 6992
wired 6993
world@@ 6994
è@@ 6995
acade@@ 6996
action 6997
agen 6998
appli@@ 6999
brothers 7000
ckets 7001
clou@@ 7002
color@@ 7003
deep 7004
deser@@ 7005
dow 7006
econom@@ 7007
emergen@@ 7008
ene@@ 7009
experiments 7010
famili@@ 7011
field 7012
foot 7013
fundamental 7014
harv@@ 7015
inje@@ 7016
light 7017
lock 7018
map 7019
mathema@@ 7020
medical 7021
nee@@ 7022
network 7023
osau@@ 7024
player 7025
progra@@ 7026
queen 7027
roo@@ 7028
roots 7029
screen 7030
songs 7031
stick 7032
sue 7033
sy 7034
tain@@ 7035
technology 7036
tox@@ 7037
tw@@ 7038
ult 7039
ways 7040
weren 7041
white 7042
you@@ 7043
your 7044
β@@ 7045
0,000 7046
ace 7047
ban 7048
boys 7049
cking 7050
coura@@ 7051
dings 7052
fert 7053
ihr@@ 7054
inf@@ 7055
ite 7056
leist@@ 7057
libr@@ 7058
mad 7059
marine 7060
mexico 7061
motion 7062
obs@@ 7063
onal 7064
performance 7065
phr@@ 7066
ques 7067
seit@@ 7068
sing 7069
sorry 7070
sound 7071
table 7072
tac@@ 7073
ties 7074
venue 7075
view 7076
wies@@ 7077
yes 7078
‒ 7079
@ 7080
camp 7081
coll@@ 7082
common@@ 7083
diab@@ 7084
exp@@ 7085
gala@@ 7086
gation 7087
genes 7088
him@@ 7089
ital 7090
legal 7091
lifest@@ 7092
machine 7093
mass 7094
mid@@ 7095
mor 7096
motiv@@ 7097
pers@@ 7098
pping 7099
row 7100
schizop@@ 7101
sites 7102
solar 7103
sty 7104
til 7105
trip 7106
u.n. 7107
ungefä@@ 7108
vation 7109
village 7110
wn 7111
í@@ 7112
5,000 7113
acci@@ 7114
afghani@@ 7115
ages 7116
arms 7117
associ@@ 7118
back 7119
bestim@@ 7120
call@@ 7121
cape 7122
central 7123
cer 7124
comp@@ 7125
conne@@ 7126
deal 7127
email 7128
event 7129
free@@ 7130
full 7131
habit@@ 7132
home 7133
ier 7134
imag@@ 7135
isla@@ 7136
iti 7137
kay 7138
king@@ 7139
leads 7140
lies 7141
look 7142
maker 7143
nature 7144
ners 7145
off 7146
oles@@ 7147
ols 7148
onlin@@ 7149
ough 7150
pagne 7151
passion 7152
pflich@@ 7153
public 7154
qua@@ 7155
quot@@ 7156
requ@@ 7157
rever@@ 7158
shall 7159
so-@@ 7160
spac@@ 7161
stage 7162
such 7163
telescop@@ 7164
thinking 7165
united 7166
wards 7167
word 7168
ye 7169
alg@@ 7170
ared 7171
autom@@ 7172
bile 7173
conser@@ 7174
copy@@ 7175
cru@@ 7176
dimen@@ 7177
ecu@@ 7178
eing 7179
erwei@@ 7180
ets 7181
etz 7182
europ@@ 7183
evi@@ 7184
fahr 7185
feed 7186
gem@@ 7187
gles 7188
group 7189
gui@@ 7190
häre 7191
ice 7192
iden@@ 7193
if 7194
influ@@ 7195
kenya 7196
kle 7197
lot 7198
low-@@ 7199
mosp@@ 7200
mp 7201
n. 7202
obser@@ 7203
phar@@ 7204
photo 7205
ples 7206
plo@@ 7207
proteins 7208
report 7209
repres@@ 7210
shot 7211
smart 7212
spring 7213
store 7214
survey 7215
thin@@ 7216
ting 7217
tions 7218
vy 7219
water 7220
à 7221
ñ@@ 7222
ü 7223
affe@@ 7224
america 7225
book 7226
brain 7227
bridge 7228
building 7229
care 7230
cep@@ 7231
church 7232
down 7233
ely 7234
events 7235
fäng@@ 7236
happ@@ 7237
has 7238
head 7239
inner 7240
know@@ 7241
letzten@@ 7242
list 7243
non-@@ 7244
ology 7245
ould 7246
performan@@ 7247
rd 7248
regul@@ 7249
roll 7250
sees 7251
sense 7252
sep@@ 7253
separate 7254
soft 7255
tol@@ 7256
tool 7257
tty 7258
universal 7259
young 7260
( 7261
acc@@ 7262
auß@@ 7263
bang 7264
bedür@@ 7265
card 7266
children 7267
chinese 7268
chro@@ 7269
corpo@@ 7270
creative 7271
defen@@ 7272
emer@@ 7273
enter@@ 7274
feed@@ 7275
flas@@ 7276
fortun@@ 7277
gate 7278
ght-@@ 7279
home@@ 7280
human 7281
kid@@ 7282
law@@ 7283
library 7284
medicine 7285
ning 7286
od 7287
office 7288
ous 7289
oxy@@ 7290
paraly@@ 7291
pian@@ 7292
play 7293
pole 7294
quant@@ 7295
relation@@ 7296
resour@@ 7297
separ@@ 7298
simp@@ 7299
single 7300
spee@@ 7301
stero@@ 7302
sub-@@ 7303
tell 7304
thin 7305
track 7306
tree 7307
unser@@ 7308
vac@@ 7309
value 7310
versums 7311
ves@@ 7312
vili@@ 7313
viol@@ 7314
wait 7315
walk 7316
work 7317
zy 7318
,000 7319
21@@ 7320
aid 7321
army 7322
ature 7323
best 7324
bine 7325
bing 7326
blan@@ 7327
bles 7328
butt@@ 7329
chur@@ 7330
content 7331
court 7332
dead 7333
dep@@ 7334
dist@@ 7335
dog 7336
english 7337
expres@@ 7338
galaxi@@ 7339
gegent@@ 7340
geschaff@@ 7341
girls 7342
have 7343
hot 7344
hurt 7345
ills 7346
impact 7347
independent 7348
kill@@ 7349
lines 7350
maps 7351
may 7352
milit@@ 7353
mountain 7354
natu@@ 7355
other@@ 7356
over 7357
pacific 7358
pack 7359
peak 7360
pedia 7361
piano 7362
ping 7363
press 7364
reality 7365
restri@@ 7366
rich 7367
satur@@ 7368
sna@@ 7369
spot 7370
steel 7371
suff@@ 7372
tain 7373
th-@@ 7374
think 7375
ths 7376
tics 7377
ttle 7378
ug@@ 7379
ving 7380
water@@ 7381
week 7382
whole 7383
worth 7384
wra@@ 7385
# 7386
10,000 7387
add@@ 7388
and-@@ 7389
anim@@ 7390
auth@@ 7391
base 7392
bring 7393
cast 7394
chicken 7395
cis@@ 7396
country 7397
dama@@ 7398
dent 7399
designers 7400
det@@ 7401
dic@@ 7402
distri@@ 7403
drink 7404
eco@@ 7405
euro@@ 7406
exc@@ 7407
eye 7408
falt 7409
first 7410
four 7411
freedom 7412
gentle@@ 7413
golden 7414
good 7415
government 7416
heal@@ 7417
his 7418
ial 7419
ical 7420
ior 7421
ites 7422
job@@ 7423
laboratory 7424
large 7425
lets 7426
life@@ 7427
manhat@@ 7428
middle 7429
movi@@ 7430
müs@@ 7431
na-@@ 7432
nerv@@ 7433
ogen@@ 7434
pers 7435
race 7436
resili@@ 7437
scri@@ 7438
security 7439
serious 7440
share 7441
situ@@ 7442
spec@@ 7443
speed 7444
stran@@ 7445
suit 7446
thro@@ 7447
touch 7448
trilli@@ 7449
ttel 7450
ture 7451
who@@ 7452
.b. 7453
1,000 7454
ables 7455
active 7456
acy 7457
addition 7458
after 7459
alzhei@@ 7460
amo@@ 7461
ap 7462
area 7463
ases 7464
atoms 7465
birthday 7466
body 7467
cab@@ 7468
case 7469
chers 7470
chic@@ 7471
cles 7472
cour@@ 7473
dance 7474
destru@@ 7475
diag@@ 7476
dinner 7477
discovery 7478
electro@@ 7479
eleph@@ 7480
elling 7481
ernsth@@ 7482
establi@@ 7483
financial 7484
fossil 7485
game 7486
garden 7487
gni@@ 7488
haven 7489
heads 7490
him 7491
hit 7492
ires 7493
joy 7494
like 7495
models 7496
mountains 7497
mous 7498
organs 7499
oth 7500
pants 7501
partment 7502
pay@@ 7503
pet 7504
plane 7505
pop 7506
pose 7507
puts 7508
rami@@ 7509
rel@@ 7510
reti@@ 7511
room 7512
rs 7513
safe@@ 7514
say 7515
sea 7516
services 7517
ship 7518
sleep 7519
sophi@@ 7520
sphere 7521
staf@@ 7522
starts 7523
strate@@ 7524
stron@@ 7525
stry 7526
swi@@ 7527
technologies 7528
thers 7529
wers 7530
whe@@ 7531
when 7532
whi@@ 7533
woman 7534
wri@@ 7535
your@@ 7536
zumin@@ 7537
züglich 7538
2,000 7539
^ 7540
ads 7541
advanced 7542
ago 7543
ants 7544
ators 7545
began 7546
better 7547
bird 7548
books 7549
bright 7550
buchstä@@ 7551
burn 7552
capture 7553
chap@@ 7554
cil 7555
citi@@ 7556
coast 7557
computing 7558
craft 7559
crash 7560
cum@@ 7561
curi@@ 7562
daily 7563
deter@@ 7564
direc@@ 7565
direct 7566
duc@@ 7567
eff@@ 7568
energ@@ 7569
energy 7570
entreprene@@ 7571
explor@@ 7572
face 7573
faces 7574
fam@@ 7575
famil@@ 7576
fif@@ 7577
fish 7578
fly 7579
forest 7580
ful 7581
galax@@ 7582
give 7583
gul@@ 7584
ination 7585
instit@@ 7586
integr@@ 7587
irgen@@ 7588
ith 7589
jum@@ 7590
kid 7591
manufacturing 7592
memor@@ 7593
meters 7594
mole@@ 7595
morning 7596
music 7597
nant 7598
nur@@ 7599
onder@@ 7600
ority 7601
osop@@ 7602
ote 7603
partici@@ 7604
pes 7605
phic 7606
police 7607
print 7608
prinzi@@ 7609
rain@@ 7610
recor@@ 7611
resol@@ 7612
ries 7613
run 7614
sat 7615
sav@@ 7616
sear@@ 7617
seem@@ 7618
sets 7619
sever@@ 7620
shared 7621
six@@ 7622
spirit 7623
take 7624
they 7625
trust 7626
tude 7627
ush 7628
utes 7629
wake 7630
with 7631
yel@@ 7632
zeugt 7633
 7634
accoun@@ 7635
afri@@ 7636
amera 7637
americ@@ 7638
anthro@@ 7639
any 7640
arc@@ 7641
architecture 7642
ations 7643
buy 7644
canada 7645
capit@@ 7646
centers 7647
challenge 7648
cities 7649
class 7650
climate 7651
control 7652
ct@@ 7653
cycle 7654
development 7655
electr@@ 7656
eless 7657
ences 7658
entertain@@ 7659
entre@@ 7660
ering 7661
even 7662
everywhere 7663
express 7664
feel 7665
figh@@ 7666
flying 7667
former 7668
ged 7669
gir@@ 7670
giving 7671
gle 7672
god 7673
grand@@ 7674
happiness 7675
hard 7676
history 7677
hold 7678
hous@@ 7679
humanity 7680
imagination 7681
india 7682
ining 7683
ish 7684
lebe@@ 7685
less 7686
levels 7687
little 7688
loo@@ 7689
made 7690
maj@@ 7691
make 7692
males 7693
market 7694
match 7695
micha@@ 7696
mouth 7697
multiple 7698
narra@@ 7699
occu@@ 7700
open@@ 7701
perfor@@ 7702
photos 7703
plays 7704
pre-@@ 7705
pris@@ 7706
program 7707
quas@@ 7708
rais@@ 7709
read 7710
rid 7711
save 7712
self-@@ 7713
she 7714
small 7715
soc@@ 7716
southern 7717
sting 7718
tali@@ 7719
thetic 7720
this 7721
thom@@ 7722
thou@@ 7723
throw 7724
tissue 7725
today 7726
train 7727
tribu@@ 7728
trotz@@ 7729
tural 7730
unds 7731
urban 7732
vehi@@ 7733
virtual 7734
what 7735
wonder 7736
worldwide 7737
xide 7738
äume 7739
ç@@ 7740
ó 7741
access 7742
after@@ 7743
aga@@ 7744
applied 7745
around 7746
assem@@ 7747
asy 7748
ated 7749
bag 7750
beau@@ 7751
bone 7752
brother 7753
built 7754
call 7755
carb@@ 7756
change 7757
cisco 7758
collect 7759
come 7760
communities 7761
cros@@ 7762
crowd 7763
dden 7764
death 7765
dec@@ 7766
director 7767
discover 7768
dn 7769
dogs 7770
dry 7771
education 7772
electric 7773
elek@@ 7774
elements 7775
emo@@ 7776
ening 7777
ever 7778
far 7779
fic@@ 7780
fire 7781
fix 7782
forever 7783
future 7784
games 7785
garti@@ 7786
ght@@ 7787
gling 7788
heart 7789
hour 7790
iness 7791
infin@@ 7792
inst 7793
intel@@ 7794
intri@@ 7795
intu@@ 7796
investment 7797
irs 7798
ists 7799
ked 7800
letter 7801
limit@@ 7802
magic 7803
makers 7804
mic 7805
minde@@ 7806
mira@@ 7807
mom 7808
moments 7809
moon 7810
movement 7811
natural 7812
networks 7813
nia 7814
ocean 7815
oil 7816
oms 7817
organi@@ 7818
organization 7819
ours 7820
pan 7821
people 7822
ple 7823
popular 7824
prime 7825
pus@@ 7826
quie@@ 7827
reading 7828
ric 7829
road 7830
robot 7831
sages 7832
scientific 7833
self 7834
sett@@ 7835
signals 7836
slow 7837
some 7838
special 7839
step 7840
surro@@ 7841
tables 7842
there 7843
tical 7844
titude 7845
tory 7846
true 7847
turing 7848
type 7849
upon 7850
ution@@ 7851
vey 7852
viell@@ 7853
voices 7854
 7855
 7856
¥ 7857
ã@@ 7858
` 7859
ada@@ 7860
adul@@ 7861
agri@@ 7862
aming 7863
ance@@ 7864
architec@@ 7865
ating 7866
belief 7867
beson@@ 7868
biology 7869
blood 7870
califor@@ 7871
capital 7872
cars 7873
ced 7874
cell 7875
challen@@ 7876
changing 7877
check 7878
chemical 7879
chmal 7880
circle 7881
citizens 7882
clean 7883
close 7884
comfort 7885
cont@@ 7886
crime 7887
ctions 7888
ctor 7889
curr@@ 7890
dation 7891
ded 7892
designed 7893
doc@@ 7894
doing 7895
dots 7896
double 7897
economics 7898
ement@@ 7899
ements 7900
engine@@ 7901
ernt 7902
ery 7903
ests 7904
exam@@ 7905
expon@@ 7906
fields 7907
flä@@ 7908
four@@ 7909
frame 7910
fren@@ 7911
french 7912
galaxy 7913
gap 7914
gespi@@ 7915
ght 7916
girl 7917
gone 7918
got 7919
gun 7920
hero 7921
hope 7922
ids 7923
impossible 7924
just 7925
lay 7926
lead 7927
left 7928
letters 7929
lic 7930
lic@@ 7931
ligh@@ 7932
liquid 7933
lost 7934
lunch 7935
major 7936
mate 7937
matic 7938
milk 7939
mming 7940
money 7941
nations 7942
nine 7943
ological 7944
order 7945
photograph@@ 7946
picture 7947
platform 7948
president 7949
prise 7950
projects 7951
protection 7952
provi@@ 7953
raising 7954
random 7955
repe@@ 7956
resources 7957
rhy@@ 7958
sands 7959
says 7960
solution 7961
standing 7962
sted 7963
string 7964
studies 7965
style 7966
supp@@ 7967
talking 7968
theor@@ 7969
tish 7970
tles 7971
tops 7972
tracking 7973
traffic 7974
treatment 7975
two 7976
ual 7977
umin@@ 7978
universe 7979
uring 7980
ved 7981
vel 7982
vertr@@ 7983
walking 7984
walls 7985
weal@@ 7986
wing 7987
wire 7988
words 7989
zens 7990
zhei@@ 7991
 7992
­ 7993
â@@ 7994
ê@@ 7995
í 7996
ö 7997
ück 7998
* 7999
100,000 8000
ability 8001
account 8002
acts 8003
africa 8004
african 8005
amount 8006
another 8007
appreci@@ 8008
asing 8009
astrop@@ 8010
atmosphere 8011
basic 8012
bed 8013
bed@@ 8014
began@@ 8015
behind 8016
bly 8017
brea@@ 8018
break 8019
break@@ 8020
bub@@ 8021
cals 8022
camera 8023
cational 8024
century 8025
chair 8026
character 8027
cies 8028
clas@@ 8029
classi@@ 8030
cold 8031
color 8032
comm@@ 8033
commer@@ 8034
communic@@ 8035
conven@@ 8036
core 8037
counter 8038
course 8039
crazy 8040
cris@@ 8041
crisis 8042
cure 8043
custom@@ 8044
days 8045
dence 8046
department 8047
disaster 8048
distribu@@ 8049
done 8050
door 8051
dream 8052
drop 8053
eastern 8054
edge 8055
engine 8056
entrepr@@ 8057
environment 8058
equivalent 8059
every 8060
exploration 8061
family 8062
fashi@@ 8063
fashion 8064
feet 8065
find 8066
five 8067
free 8068
ghts 8069
giant 8070
grew 8071
hearing 8072
honor 8073
hood 8074
impres@@ 8075
indian 8076
industry 8077
inte@@ 8078
intelligence 8079
kens@@ 8080
kitchen 8081
kog@@ 8082
later 8083
laugh@@ 8084
leader 8085
lec@@ 8086
less@@ 8087
listen@@ 8088
living 8089
lower 8090
main 8091
mber 8092
mend@@ 8093
might 8094
mile 8095
mind 8096
mush@@ 8097
naturally 8098
nice 8099
nor 8100
norm@@ 8101
oce@@ 8102
of-@@ 8103
ologist 8104
onic 8105
only 8106
oral 8107
ories 8108
orith@@ 8109
othe@@ 8110
oud 8111
oxygen 8112
paci@@ 8113
photogra@@ 8114
photograph 8115
pid 8116
place 8117
poetry 8118
pollution 8119
quick@@ 8120
recei@@ 8121
ridi@@ 8122
rights 8123
robots 8124
rooms 8125
rough@@ 8126
rul@@ 8127
scap@@ 8128
search 8129
seas@@ 8130
secon@@ 8131
secret 8132
shape 8133
site 8134
slide 8135
states 8136
stead 8137
stories 8138
stors 8139
struc@@ 8140
tch 8141
teach 8142
tells 8143
that 8144
things 8145
third 8146
tle 8147
trillion 8148
trou@@ 8149
tube 8150
unded 8151
unger 8152
uses 8153
usual 8154
verbess@@ 8155
vice 8156
viron@@ 8157
voice 8158
want 8159
washing@@ 8160
wea@@ 8161
wed 8162
well-@@ 8163
wise 8164
within 8165
worl@@ 8166
xes 8167
xic@@ 8168
year 8169
yed 8170
yers 8171
yourself 8172
zop@@ 8173
³ 8174
¼ 8175
× 8176
ä 8177
ø@@ 8178
ú@@ 8179
œ@@ 8180
β 8181
20th 8182
3,000 8183
_ 8184
`@@ 8185
aci@@ 8186
activ@@ 8187
advan@@ 8188
afford 8189
again 8190
aging 8191
agre@@ 8192
airplane 8193
angle 8194
answer 8195
answers 8196
aring 8197
arri@@ 8198
artist 8199
asia 8200
ask 8201
asking 8202
assu@@ 8203
astern 8204
atures 8205
away 8206
bees 8207
behavi@@ 8208
beina@@ 8209
bekan@@ 8210
bey@@ 8211
beyond 8212
birds 8213
boat 8214
bread 8215
breath 8216
buil@@ 8217
buildings 8218
calcul@@ 8219
carbon 8220
care@@ 8221
centi@@ 8222
cers 8223
cess@@ 8224
charge 8225
ching 8226
chir@@ 8227
choice 8228
choices 8229
cide 8230
cle 8231
clock 8232
coal 8233
colors 8234
commun@@ 8235
condi@@ 8236
confidence 8237
continu@@ 8238
contr@@ 8239
cost 8240
count 8241
crea@@ 8242
credit 8243
cts 8244
dark 8245
deb@@ 8246
dee@@ 8247
degree 8248
depen@@ 8249
determin@@ 8250
develop@@ 8251
device 8252
disco@@ 8253
doctor 8254
drug 8255
dynamic 8256
earth@@ 8257
elec@@ 8258
electrical 8259
embar@@ 8260
embra@@ 8261
ency 8262
enough 8263
environmental 8264
equipment 8265
erlau@@ 8266
everybody 8267
exten@@ 8268
farmers 8269
fat 8270
fighting 8271
final 8272
flight 8273
foreign 8274
foun@@ 8275
friend@@ 8276
friends 8277
from 8278
gement 8279
gest 8280
going 8281
gravity 8282
greater 8283
grid 8284
groups 8285
growth 8286
gry 8287
gyp@@ 8288
happen 8289
health@@ 8290
hed 8291
hits 8292
hori@@ 8293
horse 8294
hospit@@ 8295
hund@@ 8296
illness 8297
images 8298
indivi@@ 8299
inning 8300
inside 8301
intern@@ 8302
into 8303
jump 8304
justice 8305
kee@@ 8306
keys 8307
kilometers 8308
kinds 8309
know 8310
late 8311
leaders 8312
leadership 8313
least 8314
legs 8315
machin@@ 8316
marriage 8317
mented 8318
message 8319
miles 8320
minds 8321
minutes 8322
month 8323
most 8324
mouse 8325
move 8326
near 8327
neurons 8328
next 8329
noise 8330
notes 8331
opport@@ 8332
opportunity 8333
organic 8334
paid 8335
path 8336
patients 8337
pengu@@ 8338
physical 8339
pieces 8340
plastic 8341
poverty 8342
powerful 8343
progress 8344
ption 8345
push 8346
radical 8347
reach 8348
read@@ 8349
reas@@ 8350
related 8351
resource 8352
richt 8353
ride 8354
safe 8355
said 8356
schools 8357
scientist 8358
seat 8359
second 8360
sed 8361
series 8362
ships 8363
simpli@@ 8364
some@@ 8365
species 8366
spectrum 8367
stac@@ 8368
story@@ 8369
streets 8370
takes 8371
temporary 8372
term 8373
the-@@ 8374
thought 8375
three 8376
tial 8377
treat 8378
try 8379
tting 8380
tures 8381
turn 8382
vels 8383
very 8384
visual 8385
vot@@ 8386
watch 8387
wear 8388
ween 8389
wher@@ 8390
why 8391
wisdom 8392
wonder@@ 8393
working 8394
yesterday 8395
zation 8396
zine 8397
zing 8398
© 8399
å@@ 8400
ô@@ 8401
ā@@ 8402
\ 8403
ably 8404
about 8405
above 8406
acceler@@ 8407
accor@@ 8408
achie@@ 8409
acting 8410
actions 8411
activi@@ 8412
add 8413
address 8414
aled 8415
alive 8416
alone 8417
already 8418
ancient 8419
animal 8420
apart 8421
appropri@@ 8422
arian 8423
aries 8424
ased 8425
associated 8426
atory 8427
awar@@ 8428
axis 8429
background 8430
bacteri@@ 8431
battle 8432
beat 8433
becomes 8434
benef@@ 8435
bling 8436
bottom 8437
boun@@ 8438
bras@@ 8439
brazi@@ 8440
breaking 8441
breast 8442
britain 8443
bubble 8444
cally 8445
campaign 8446
cans 8447
capac@@ 8448
catch 8449
cate 8450
cations 8451
cause 8452
celebra@@ 8453
chain 8454
challenges 8455
cheap 8456
ched 8457
child@@ 8458
cial 8459
cians 8460
circu@@ 8461
civil 8462
clear 8463
clear@@ 8464
click 8465
clim@@ 8466
clinical 8467
coffee 8468
collective 8469
combin@@ 8470
comes 8471
coming 8472
commercial 8473
commit@@ 8474
common 8475
compe@@ 8476
complex 8477
compli@@ 8478
concep@@ 8479
conduc@@ 8480
conference 8481
connect 8482
connected 8483
consciousness 8484
const@@ 8485
construction 8486
consu@@ 8487
consumer 8488
contact 8489
contin@@ 8490
creation 8491
crimin@@ 8492
cross 8493
cting 8494
ctive 8495
cular 8496
cultural 8497
culture 8498
dea@@ 8499
deci@@ 8500
decision 8501
define 8502
degrees 8503
demand 8504
democracy 8505
democratic 8506
desert 8507
destruction 8508
devices 8509
did 8510
diet 8511
direction 8512
disc@@ 8513
disease 8514
distribution 8515
diversity 8516
dness 8517
dreams 8518
drive 8519
due 8520
early 8521
eat 8522
econ@@ 8523
economy 8524
eding 8525
effect 8526
electri@@ 8527
electricity 8528
else 8529
emerging 8530
employe@@ 8531
engineer 8532
engineers 8533
environ@@ 8534
eping 8535
equi@@ 8536
esn 8537
essential 8538
etes 8539
europe 8540
europe@@ 8541
european 8542
everything 8543
exchange 8544
exer@@ 8545
expe@@ 8546
expensive 8547
experience 8548
expla@@ 8549
expression 8550
extraordinary 8551
eyes 8552
facili@@ 8553
fail@@ 8554
families 8555
feeling 8556
fic 8557
fied 8558
figure 8559
finding 8560
fishing 8561
foc@@ 8562
follo@@ 8563
forms 8564
forward 8565
found 8566
fresh 8567
fuel 8568
fun 8569
function 8570
fy 8571
ghter 8572
gic 8573
gical 8574
goes 8575
gover@@ 8576
govern@@ 8577
graduate 8578
graphic 8579
grou@@ 8580
grow@@ 8581
healthcare 8582
healthy 8583
hear 8584
hidden 8585
higher 8586
holes 8587
hosp@@ 8588
hospitals 8589
idea 8590
identity 8591
ight 8592
imagine 8593
import@@ 8594
inclu@@ 8595
incredi@@ 8596
ined 8597
infrastructure 8598
interest 8599
inven@@ 8600
invi@@ 8601
invisible 8602
irgendet@@ 8603
ishing 8604
issues 8605
ize 8606
jeden@@ 8607
journey 8608
jud@@ 8609
keeping 8610
kill 8611
killed 8612
killing 8613
lack 8614
ladies 8615
language 8616
lations 8617
laws 8618
learned 8619
learning 8620
leaves 8621
lights 8622
limited 8623
load 8624
local 8625
location 8626
long-@@ 8627
looks 8628
machines 8629
making 8630
many 8631
marke@@ 8632
marri@@ 8633
mates 8634
mathematical 8635
matter 8636
matters 8637
means 8638
medic@@ 8639
meet 8640
method 8641
midd@@ 8642
mirror 8643
molecular 8644
mother 8645
mothers 8646
movies 8647
mption 8648
much 8649
musical 8650
must 8651
named 8652
ned 8653
need 8654
needs 8655
never 8656
niem@@ 8657
northern 8658
nothing 8659
number 8660
once 8661
opportunities 8662
organized 8663
ough@@ 8664
pages 8665
paig@@ 8666
pain 8667
pain@@ 8668
paper 8669
parts 8670
patterns 8671
ped 8672
percent 8673
perception 8674
perha@@ 8675
physics 8676
piece 8677
planets 8678
players 8679
playing 8680
pleasure 8681
pment 8682
points 8683
policy 8684
pon 8685
poor 8686
possi@@ 8687
pounds 8688
pped 8689
predat@@ 8690
predic@@ 8691
present 8692
presi@@ 8693
prison 8694
proce@@ 8695
process 8696
process@@ 8697
product 8698
production 8699
programs 8700
proud 8701
quality 8702
questions 8703
radiation 8704
raid 8705
rant 8706
rates 8707
rather 8708
reaction 8709
reason 8710
reci@@ 8711
recogni@@ 8712
record 8713
rele@@ 8714
remote 8715
requi@@ 8716
response 8717
responsibility 8718
ress 8719
reve@@ 8720
round 8721
rule 8722
rules 8723
runs 8724
ruption 8725
russi@@ 8726
sad 8727
safety 8728
scale 8729
scen@@ 8730
scientists 8731
scop@@ 8732
sensitive 8733
serve 8734
shark 8735
shift 8736
shoes 8737
sick 8738
sight 8739
silic@@ 8740
silk 8741
simil@@ 8742
sions 8743
sit 8744
sitting 8745
six 8746
size 8747
smit@@ 8748
soci@@ 8749
soil 8750
solu@@ 8751
something 8752
soon 8753
sorts 8754
spaces 8755
spea@@ 8756
speak 8757
speci@@ 8758
spread 8759
stable 8760
started 8761
statistics 8762
stic 8763
stics 8764
strated 8765
strug@@ 8766
stuck 8767
study 8768
stuff 8769
success 8770
success@@ 8771
sugge@@ 8772
suppor@@ 8773
support 8774
surface 8775
surge@@ 8776
surgery 8777
susta@@ 8778
sustainable 8779
tality 8780
target 8781
ternal 8782
terrible 8783
thanks 8784
theory 8785
thing 8786
thir@@ 8787
thoughts 8788
threat 8789
through 8790
through@@ 8791
tiny 8792
tivity 8793
tomorrow 8794
trage@@ 8795
transp@@ 8796
travel 8797
trials 8798
twice 8799
two-@@ 8800
u.k. 8801
ully 8802
unit 8803
unts 8804
valu@@ 8805
values 8806
vehicle 8807
vent 8808
vices 8809
villa@@ 8810
volun@@ 8811
waiting 8812
walked 8813
waves 8814
weather 8815
went 8816
wheel@@ 8817
wings 8818
with@@ 8819
workers 8820
write 8821
writer 8822
yellow 8823
ying 8824
£ 8825
® 8826
¾ 8827
à@@ 8828
á 8829
è 8830
ë 8831
ë@@ 8832
î@@ 8833
ï@@ 8834
ý@@ 8835
ō@@ 8836
š@@ 8837
к@@ 8838
ӓ@@ 8839
€ 8840
你@@ 8841
葱 8842
送@@ 8843
﻿ 8844
， 8845
madeupword0000 8846
madeupword0001 8847
